<pad>	0
<unk>	0
<s>	0
</s>	0
▁t	-0
he	-1
▁a	-2
in	-3
▁the	-4
▁w	-5
▁s	-6
▁o	-7
re	-8
nd	-9
▁h	-10
er	-11
ou	-12
is	-13
▁b	-14
at	-15
ed	-16
▁m	-17
▁f	-18
it	-19
▁c	-20
en	-21
▁and	-22
on	-23
▁of	-24
▁to	-25
ing	-26
or	-27
▁d	-28
es	-29
▁th	-30
an	-31
ll	-32
ar	-33
▁p	-34
as	-35
▁in	-36
▁he	-37
▁l	-38
▁n	-39
om	-40
▁ha	-41
le	-42
▁be	-43
▁g	-44
▁I	-45
ic	-46
ot	-47
▁wh	-48
▁e	-49
▁“	-50
ow	-51
ut	-52
im	-53
id	-54
▁y	-55
se	-56
ve	-57
st	-58
ly	-59
▁re	-60
▁that	-61
▁T	-62
▁on	-63
ld	-64
ent	-65
ce	-66
▁you	-67
▁was	-68
▁his	-69
gh	-70
ith	-71
ion	-72
ay	-73
▁with	-74
al	-75
et	-76
▁it	-77
▁u	-78
ir	-79
ver	-80
ad	-81
ro	-82
▁as	-83
▁is	-84
ur	-85
▁for	-86
▁not	-87
▁st	-88
▁A	-89
ght	-90
▁we	-91
ri	-92
▁sa	-93
▁had	-94
ch	-95
her	-96
▁an	-97
ct	-98
▁The	-99
ill	-100
▁at	-101
▁him	-102
ain	-103
▁M	-104
▁se	-105
▁sh	-106
oo	-107
am	-108
ich	-109
▁H	-110
▁her	-111
ter	-112
▁me	-113
ould	-114
all	-115
ke	-116
▁S	-117
ra	-118
if	-119
ess	-120
.”	-121
▁which	-122
red	-123
▁de	-124
il	-125
us	-126
▁so	-127
▁fr	-128
▁have	-129
▁all	-130
▁P	-131
ore	-132
▁su	-133
▁my	-134
▁C	-135
▁said	-136
pe	-137
▁B	-138
▁but	-139
▁by	-140
▁con	-141
ard	-142
▁this	-143
th	-144
▁from	-145
ck	-146
▁who	-147
▁or	-148
ight	-149
ome	-150
qu	-151
▁W	-152
ul	-153
▁k	-154
ge	-155
▁r	-156
▁do	-157
ble	-158
ant	-159
▁v	-160
▁whe	-161
▁she	-162
and	-163
▁ex	-164
res	-165
ust	-166
ous	-167
▁man	-168
pp	-169
,”	-170
▁are	-171
▁one	-172
ation	-173
▁they	-174
te	-175
ers	-176
ist	-177
est	-178
▁ne	-179
sel	-180
▁up	-181
▁were	-182
nt	-183
▁fe	-184
▁al	-185
ound	-186
▁ch	-187
os	-188
▁He	-189
▁li	-190
ol	-191
em	-192
very	-193
ast	-194
▁will	-195
our	-196
out	-197
▁no	-198
▁them	-199
ind	-200
▁G	-201
ong	-202
ate	-203
▁F	-204
ood	-205
art	-206
▁wor	-207
ap	-208
▁there	-209
ie	-210
ak	-211
▁N	-212
▁com	-213
▁kn	-214
un	-215
one	-216
▁D	-217
▁ar	-218
▁le	-219
um	-220
?”	-221
ort	-222
self	-223
la	-224
ost	-225
▁ab	-226
▁their	-227
ig	-228
ame	-229
ther	-230
▁go	-231
▁And	-232
ven	-233
ect	-234
▁your	-235
op	-236
▁j	-237
▁been	-238
▁when	-239
▁out	-240
▁would	-241
▁ag	-242
▁L	-243
ough	-244
ook	-245
ive	-246
▁int	-247
▁what	-248
ide	-249
au	-250
hed	-251
▁un	-252
▁O	-253
ity	-254
ine	-255
reat	-256
ose	-257
▁pro	-258
▁ro	-259
own	-260
▁sp	-261
▁Th	-262
▁E	-263
▁any	-264
urn	-265
▁tr	-266
ell	-267
▁am	-268
▁R	-269
ep	-270
ure	-271
▁more	-272
itt	-273
▁qu	-274
▁fa	-275
ount	-276
ved	-277
ice	-278
▁other	-279
od	-280
li	-281
ass	-282
hing	-283
▁if	-284
▁into	-285
▁can	-286
nder	-287
ber	-288
ance	-289
▁then	-290
able	-291
▁has	-292
ake	-293
▁pr	-294
▁tim	-295
ue	-296
▁some	-297
pt	-298
ci	-299
!”	-300
▁af	-301
▁im	-302
▁V	-303
ag	-304
ry	-305
▁tw	-306
ire	-307
▁us	-308
▁could	-309
▁dis	-310
ove	-311
▁ad	-312
▁know	-313
ars	-314
▁hand	-315
cc	-316
ite	-317
▁did	-318
▁now	-319
ree	-320
▁J	-321
ab	-322
▁like	-323
el	-324
other	-325
ought	-326
way	-327
▁en	-328
ress	-329
▁see	-330
ade	-331
ence	-332
fore	-333
▁only	-334
▁say	-335
ang	-336
▁again	-337
▁br	-338
ather	-339
▁It	-340
ies	-341
ving	-342
are	-343
▁very	-344
wn	-345
lo	-346
▁look	-347
▁than	-348
hat	-349
▁over	-350
ment	-351
▁time	-352
tain	-353
ated	-354
▁But	-355
ack	-356
ink	-357
▁about	-358
ud	-359
▁too	-360
▁should	-361
ish	-362
ier	-363
ile	-364
▁day	-365
ked	-366
▁po	-367
▁off	-368
▁rep	-369
▁‘	-370
ond	-371
--	-372
per	-373
ary	-374
ach	-375
▁cl	-376
▁our	-377
▁must	-378
ally	-379
▁per	-380
▁gr	-381
age	-382
ered	-383
▁rem	-384
ves	-385
ren	-386
▁himself	-387
▁may	-388
ac	-389
▁fir	-390
ff	-391
▁every	-392
▁Y	-393
ings	-394
right	-395
ions	-396
me	-397
▁ey	-398
▁great	-399
ward	-400
▁two	-401
▁under	-402
ittle	-403
▁long	-404
▁sm	-405
▁thr	-406
ife	-407
ful	-408
..	-409
▁pe	-410
▁before	-411
led	-412
ans	-413
▁des	-414
▁how	-415
▁good	-416
▁pre	-417
ced	-418
ness	-419
▁little	-420
▁down	-421
▁str	-422
oll	-423
ath	-424
ious	-425
▁old	-426
ull	-427
ty	-428
ince	-429
hen	-430
si	-431
▁bl	-432
ise	-433
▁count	-434
ject	-435
▁beg	-436
▁these	-437
▁after	-438
▁seem	-439
uch	-440
▁upon	-441
▁spe	-442
▁first	-443
old	-444
▁even	-445
▁_	-446
▁thought	-447
▁arm	-448
▁such	-449
▁comp	-450
▁men	-451
▁made	-452
ave	-453
ft	-454
rie	-455
ign	-456
▁pl	-457
▁bec	-458
▁ra	-459
▁where	-460
ried	-461
ng	-462
▁part	-463
▁shall	-464
▁own	-465
▁way	-466
▁pass	-467
ark	-468
ild	-469
▁went	-470
▁its	-471
ouse	-472
rew	-473
▁just	-474
▁fl	-475
▁In	-476
▁came	-477
▁ob	-478
ning	-479
ds	-480
▁work	-481
▁let	-482
▁head	-483
ened	-484
ted	-485
▁ent	-486
▁eyes	-487
ip	-488
▁res	-489
ick	-490
ne	-491
▁turn	-492
▁come	-493
▁gl	-494
▁ret	-495
▁without	-496
▁sc	-497
▁pla	-498
▁back	-499
▁much	-500
▁still	-501
▁imp	-502
▁cont	-503
▁think	-504
ces	-505
ons	-506
we	-507
iz	-508
▁acc	-509
ors	-510
▁bet	-511
omet	-512
▁(	-513
read	-514
▁those	-515
▁same	-516
▁op	-517
▁exp	-518
▁ind	-519
▁here	-520
▁well	-521
so	-522
ord	-523
▁through	-524
ha	-525
▁ap	-526
▁away	-527
▁might	-528
less	-529
ied	-530
▁She	-531
ase	-532
iv	-533
▁never	-534
▁house	-535
▁bo	-536
row	-537
ER	-538
ss	-539
▁dist	-540
▁Then	-541
ily	-542
▁1	-543
▁St	-544
▁father	-545
▁comm	-546
▁life	-547
ean	-548
▁cons	-549
▁pos	-550
ause	-551
▁car	-552
▁Pr	-553
▁young	-554
▁pres	-555
thing	-556
aking	-557
▁somet	-558
▁most	-559
▁happ	-560
les	-561
▁call	-562
cess	-563
riend	-564
orm	-565
▁lo	-566
fe	-567
▁This	-568
▁being	-569
▁nothing	-570
pect	-571
▁last	-572
▁Ch	-573
ared	-574
▁saw	-575
hy	-576
▁ye	-577
oment	-578
▁moment	-579
man	-580
ale	-581
here	-582
▁ser	-583
air	-584
hes	-585
▁friend	-586
▁make	-587
▁wr	-588
▁room	-589
ory	-590
▁wat	-591
▁app	-592
▁There	-593
▁door	-594
ener	-595
▁ord	-596
arm	-597
lied	-598
▁att	-599
▁night	-600
▁left	-601
▁form	-602
▁tell	-603
▁took	-604
▁seemed	-605
▁la	-606
▁another	-607
▁end	-608
atter	-609
ertain	-610
▁vo	-611
▁face	-612
.’	-613
▁bel	-614
▁ter	-615
ations	-616
cy	-617
▁em	-618
▁right	-619
iss	-620
▁ke	-621
▁mar	-622
▁rec	-623
▁though	-624
▁light	-625
▁K	-626
ret	-627
▁te	-628
▁Pro	-629
ished	-630
vent	-631
▁appe	-632
▁once	-633
▁found	-634
▁U	-635
▁get	-636
int	-637
▁return	-638
▁take	-639
ru	-640
▁read	-641
▁You	-642
uten	-643
ult	-644
▁heard	-645
av	-646
ever	-647
▁co	-648
ction	-649
ner	-650
▁They	-651
ling	-652
ari	-653
amp	-654
ently	-655
igh	-656
ople	-657
▁child	-658
ollow	-659
oth	-660
HA	-661
▁yet	-662
berg	-663
ict	-664
▁At	-665
▁while	-666
ither	-667
▁When	-668
ition	-669
cl	-670
fort	-671
wards	-672
ix	-673
utenberg	-674
▁replied	-675
▁asked	-676
▁wom	-677
TER	-678
rib	-679
▁three	-680
▁looked	-681
ub	-682
▁Mr	-683
lt	-684
ierre	-685
den	-686
▁pers	-687
▁sec	-688
the	-689
ont	-690
▁inst	-691
og	-692
alk	-693
▁ple	-694
▁people	-695
▁sw	-696
ank	-697
▁whole	-698
▁heart	-699
ian	-700
▁hands	-701
▁ear	-702
▁Pierre	-703
▁add	-704
▁began	-705
▁place	-706
▁wa	-707
▁want	-708
▁fell	-709
▁set	-710
▁mind	-711
▁whom	-712
ates	-713
▁CHA	-714
The	-715
▁As	-716
▁inf	-717
▁something	-718
▁round	-719
▁sl	-720
ew	-721
▁Al	-722
sw	-723
PTER	-724
▁CHAPTER	-725
▁cor	-726
▁gra	-727
▁supp	-728
▁[	-729
lf	-730
ange	-731
ways	-732
▁side	-733
▁follow	-734
▁feel	-735
▁love	-736
▁Gutenberg	-737
ower	-738
▁wind	-739
ens	-740
ched	-741
▁seen	-742
aught	-743
▁put	-744
ited	-745
▁many	-746
cept	-747
▁"	-748
▁sil	-749
▁reg	-750
▁answ	-751
▁rest	-752
▁gi	-753
▁gener	-754
You	-755
▁hor	-756
▁cr	-757
▁mor	-758
▁ac	-759
▁dra	-760
not	-761
▁sur	-762
▁ass	-763
▁underst	-764
▁give	-765
ows	-766
▁What	-767
▁also	-768
lic	-769
▁Val	-770
▁gu	-771
▁war	-772
▁Project	-773
ained	-774
und	-775
▁Fr	-776
uck	-777
▁sou	-778
ged	-779
▁cour	-780
oy	-781
▁new	-782
▁sub	-783
▁each	-784
▁always	-785
rist	-786
sible	-787
ired	-788
▁ins	-789
What	-790
▁felt	-791
▁conf	-792
ho	-793
▁against	-794
▁So	-795
oke	-796
▁sat	-797
most	-798
ail	-799
cei	-800
▁We	-801
▁cap	-802
▁soon	-803
▁inte	-804
▁ref	-805
▁things	-806
▁nat	-807
ined	-808
iness	-809
act	-810
get	-811
▁If	-812
▁ever	-813
ating	-814
ised	-815
ls	-816
fect	-817
▁dif	-818
aken	-819
▁sle	-820
▁ev	-821
ting	-822
▁voice	-823
▁having	-824
ief	-825
ody	-826
▁Prince	-827
▁ho	-828
▁find	-829
▁On	-830
ace	-831
ical	-832
pped	-833
ute	-834
▁near	-835
ense	-836
vers	-837
▁son	-838
▁words	-839
ield	-840
▁name	-841
Yes	-842
▁dear	-843
oub	-844
▁beh	-845
anc	-846
▁told	-847
ial	-848
▁tre	-849
▁world	-850
▁mother	-851
▁His	-852
▁going	-853
▁full	-854
▁thing	-855
▁certain	-856
ying	-857
ple	-858
▁don	-859
ene	-860
▁pur	-861
▁turned	-862
▁because	-863
▁far	-864
ual	-865
▁done	-866
▁To	-867
▁occ	-868
rench	-869
ween	-870
▁inter	-871
aps	-872
▁fo	-873
ern	-874
▁quite	-875
▁cle	-876
up	-877
ides	-878
▁death	-879
tle	-880
ister	-881
▁God	-882
▁both	-883
▁mo	-884
▁mon	-885
▁pleas	-886
▁tra	-887
▁fall	-888
osed	-889
▁hour	-890
▁vis	-891
ph	-892
▁That	-893
▁hum	-894
▁cried	-895
eth	-896
mb	-897
▁myself	-898
▁ship	-899
▁between	-900
▁No	-901
And	-902
ery	-903
ung	-904
▁For	-905
ross	-906
▁adv	-907
uth	-908
aring	-909
▁called	-910
▁does	-911
▁ide	-912
▁present	-913
▁knew	-914
▁morning	-915
aint	-916
oud	-917
selves	-918
▁nor	-919
▁inc	-920
aut	-921
oun	-922
▁word	-923
▁che	-924
its	-925
▁bed	-926
arge	-927
rest	-928
▁disc	-929
▁French	-930
▁cannot	-931
ps	-932
▁open	-933
▁ele	-934
xt	-935
,’	-936
uc	-937
ressed	-938
aven	-939
▁contin	-940
▁kind	-941
ug	-942
▁order	-943
ued	-944
arius	-945
ille	-946
▁rel	-947
lack	-948
▁fore	-949
▁Mad	-950
ole	-951
▁Mor	-952
ures	-953
▁point	-954
▁hel	-955
▁dead	-956
ason	-957
▁dr	-958
▁years	-959
ás	-960
▁sort	-961
nded	-962
▁gave	-963
dden	-964
▁act	-965
ured	-966
▁exc	-967
ering	-968
▁ste	-969
▁stand	-970
ular	-971
▁Marius	-972
▁sk	-973
▁almost	-974
az	-975
▁woman	-976
▁quest	-977
▁towards	-978
▁understand	-979
ins	-980
ks	-981
▁half	-982
▁bar	-983
▁bre	-984
▁Mon	-985
It	-986
▁es	-987
▁few	-988
▁care	-989
owed	-990
▁hard	-991
▁fam	-992
▁An	-993
▁mean	-994
▁matter	-995
ention	-996
▁among	-997
▁sent	-998
▁home	-999
▁sudden	-1000
▁Be	-1001
▁gir	-1002
ready	-1003
▁passed	-1004
▁bro	-1005
▁got	-1006
als	-1007
▁air	-1008
▁imm	-1009
▁poor	-1010
ásha	-1011
▁dark	-1012
▁anything	-1013
▁stood	-1014
ceived	-1015
▁Nat	-1016
▁soul	-1017
▁hon	-1018
▁four	-1019
II	-1020
▁alone	-1021
▁cur	-1022
▁thy	-1023
▁behind	-1024
HE	-1025
Well	-1026
▁sun	-1027
▁true	-1028
▁already	-1029
▁person	-1030
▁herself	-1031
▁speak	-1032
▁offic	-1033
,—	-1034
▁better	-1035
ats	-1036
▁sir	-1037
ream	-1038
▁lay	-1039
▁aw	-1040
▁small	-1041
▁suff	-1042
tered	-1043
▁art	-1044
ached	-1045
▁dire	-1046
▁arms	-1047
Oh	-1048
:—	-1049
▁sound	-1050
▁*	-1051
▁since	-1052
▁taken	-1053
na	-1054
ctor	-1055
ets	-1056
▁thus	-1057
▁dec	-1058
▁el	-1059
▁eff	-1060
▁Jean	-1061
▁others	-1062
▁bat	-1063
▁Natásha	-1064
▁sim	-1065
ron	-1066
...	-1067
▁law	-1068
▁best	-1069
▁days	-1070
▁serv	-1071
▁hear	-1072
ible	-1073
▁letter	-1074
▁belie	-1075
▁prin	-1076
ey	-1077
used	-1078
▁All	-1079
▁black	-1080
▁dep	-1081
óv	-1082
▁wall	-1083
sh	-1084
▁sing	-1085
▁sea	-1086
men	-1087
irt	-1088
▁sold	-1089
haps	-1090
ten	-1091
▁white	-1092
▁help	-1093
▁inv	-1094
▁lad	-1095
ately	-1096
▁Monte	-1097
▁Andrew	-1098
ents	-1099
▁talk	-1100
ants	-1101
▁longer	-1102
▁fur	-1103
aster	-1104
risto	-1105
▁whose	-1106
▁sign	-1107
▁fire	-1108
▁Cristo	-1109
lock	-1110
▁mis	-1111
▁sleep	-1112
▁cop	-1113
▁red	-1114
aid	-1115
00	-1116
▁min	-1117
▁ph	-1118
ains	-1119
ments	-1120
▁heaven	-1121
▁water	-1122
gth	-1123
ully	-1124
jean	-1125
▁fear	-1126
▁everything	-1127
▁power	-1128
▁Valjean	-1129
ov	-1130
ably	-1131
▁ask	-1132
▁keep	-1133
▁along	-1134
tte	-1135
▁Ar	-1136
ms	-1137
ized	-1138
▁beaut	-1139
▁hold	-1140
▁Ville	-1141
rel	-1142
iting	-1143
uring	-1144
illed	-1145
▁wife	-1146
▁ground	-1147
ès	-1148
▁Rost	-1149
▁Villefort	-1150
▁command	-1151
▁use	-1152
▁doub	-1153
▁X	-1154
▁thir	-1155
No	-1156
▁Em	-1157
▁inde	-1158
But	-1159
▁brought	-1160
▁second	-1161
pr	-1162
▁Now	-1163
▁till	-1164
He	-1165
aughter	-1166
aris	-1167
▁gent	-1168
▁less	-1169
pl	-1170
▁army	-1171
that	-1172
akes	-1173
ety	-1174
▁ir	-1175
▁general	-1176
▁however	-1177
▁det	-1178
▁reason	-1179
▁Wh	-1180
▁express	-1181
▁wish	-1182
edi	-1183
anger	-1184
▁high	-1185
▁country	-1186
▁With	-1187
▁whale	-1188
▁cond	-1189
▁whether	-1190
▁saying	-1191
▁pol	-1192
ceed	-1193
fully	-1194
une	-1195
ken	-1196
▁run	-1197
▁step	-1198
by	-1199
orrow	-1200
▁list	-1201
ater	-1202
▁king	-1203
unt	-1204
▁real	-1205
▁fact	-1206
ution	-1207
ash	-1208
▁prom	-1209
laim	-1210
▁hus	-1211
▁themselves	-1212
▁opp	-1213
▁given	-1214
▁need	-1215
▁looking	-1216
▁aff	-1217
riage	-1218
osette	-1219
ract	-1220
rent	-1221
▁chief	-1222
irc	-1223
land	-1224
▁abs	-1225
▁del	-1226
▁ill	-1227
▁arri	-1228
▁sure	-1229
day	-1230
▁ang	-1231
ock	-1232
iled	-1233
▁dro	-1234
▁adm	-1235
▁ext	-1236
▁obs	-1237
gether	-1238
▁leave	-1239
▁evening	-1240
▁together	-1241
▁returned	-1242
----	-1243
▁human	-1244
▁Cosette	-1245
▁One	-1246
▁unt	-1247
▁gentle	-1248
oney	-1249
▁enough	-1250
undred	-1251
▁rather	-1252
tem	-1253
▁bes	-1254
▁How	-1255
▁fin	-1256
▁enem	-1257
▁appro	-1258
▁large	-1259
▁Rostóv	-1260
▁question	-1261
▁suddenly	-1262
cious	-1263
▁answered	-1264
rible	-1265
ison	-1266
che	-1267
imes	-1268
▁draw	-1269
▁sight	-1270
▁My	-1271
▁dest	-1272
ided	-1273
ught	-1274
ude	-1275
▁bus	-1276
▁feet	-1277
▁table	-1278
▁num	-1279
iew	-1280
▁gone	-1281
▁hundred	-1282
lars	-1283
▁par	-1284
▁course	-1285
▁deep	-1286
ts	-1287
▁girl	-1288
ousand	-1289
ching	-1290
▁thou	-1291
▁cal	-1292
ident	-1293
▁mid	-1294
▁appear	-1295
ny	-1296
▁why	-1297
ities	-1298
▁ri	-1299
owing	-1300
de	-1301
anglars	-1302
▁entered	-1303
du	-1304
▁next	-1305
▁circ	-1306
▁thousand	-1307
ances	-1308
▁blood	-1309
▁sister	-1310
▁gold	-1311
▁Danglars	-1312
roy	-1313
▁char	-1314
▁close	-1315
ility	-1316
▁bra	-1317
▁Paris	-1318
▁live	-1319
▁body	-1320
▁land	-1321
arn	-1322
▁earth	-1323
▁lost	-1324
▁1.	-1325
▁remem	-1326
▁around	-1327
én	-1328
ussi	-1329
▁lau	-1330
▁hope	-1331
▁brother	-1332
fic	-1333
▁div	-1334
▁pri	-1335
▁case	-1336
▁diffe	-1337
▁spoke	-1338
▁times	-1339
ement	-1340
cul	-1341
ool	-1342
▁either	-1343
▁Count	-1344
▁really	-1345
▁free	-1346
▁stre	-1347
bert	-1348
▁front	-1349
▁smile	-1350
▁.	-1351
▁ut	-1352
▁strange	-1353
▁foot	-1354
▁move	-1355
▁opened	-1356
ane	-1357
oc	-1358
▁within	-1359
ax	-1360
▁strong	-1361
ime	-1362
▁expect	-1363
▁dev	-1364
▁road	-1365
▁horse	-1366
▁THE	-1367
▁met	-1368
▁swe	-1369
▁2	-1370
itted	-1371
▁idea	-1372
▁perhaps	-1373
EN	-1374
▁wo	-1375
▁interest	-1376
be	-1377
ider	-1378
▁eye	-1379
▁requ	-1380
▁works	-1381
▁daughter	-1382
▁doubt	-1383
▁bur	-1384
▁joy	-1385
▁prov	-1386
nding	-1387
▁ed	-1388
▁ran	-1389
▁believe	-1390
▁leg	-1391
▁continued	-1392
▁above	-1393
▁bene	-1394
▁spr	-1395
overed	-1396
▁least	-1397
That	-1398
▁hur	-1399
▁expl	-1400
▁fight	-1401
▁money	-1402
▁necess	-1403
ased	-1404
▁begin	-1405
▁possible	-1406
▁short	-1407
iers	-1408
▁dri	-1409
_,	-1410
▁yourself	-1411
itting	-1412
▁six	-1413
▁become	-1414
▁mist	-1415
▁state	-1416
▁battle	-1417
ape	-1418
▁Nap	-1419
ising	-1420
ually	-1421
▁held	-1422
▁happy	-1423
erv	-1424
▁eas	-1425
▁clear	-1426
enty	-1427
ounded	-1428
▁remained	-1429
▁indeed	-1430
ee	-1431
arch	-1432
▁tou	-1433
▁fort	-1434
▁manner	-1435
peror	-1436
▁stra	-1437
▁Russi	-1438
ages	-1439
▁enemy	-1440
▁sn	-1441
▁shout	-1442
▁Madame	-1443
ific	-1444
ians	-1445
ror	-1446
peri	-1447
▁added	-1448
▁itself	-1449
ati	-1450
ert	-1451
ards	-1452
▁gre	-1453
to	-1454
▁became	-1455
Ah	-1456
ia	-1457
▁breat	-1458
▁start	-1459
let	-1460
fter	-1461
▁wood	-1462
ric	-1463
▁“‘	-1464
▁nature	-1465
sess	-1466
▁therefore	-1467
▁five	-1468
you	-1469
airs	-1470
▁hist	-1471
iter	-1472
ushed	-1473
▁coming	-1474
ois	-1475
▁ca	-1476
▁else	-1477
sses	-1478
oleon	-1479
▁Albert	-1480
▁Ah	-1481
▁play	-1482
▁tri	-1483
Th	-1484
mm	-1485
ines	-1486
▁col	-1487
▁ve	-1488
▁view	-1489
▁window	-1490
▁children	-1491
▁ru	-1492
▁Eli	-1493
otion	-1494
▁means	-1495
▁until	-1496
band	-1497
▁esc	-1498
▁mad	-1499
▁prof	-1500
▁says	-1501
▁pap	-1502
▁Dant	-1503
▁meet	-1504
▁quick	-1505
▁compan	-1506
▁received	-1507
▁Morrel	-1508
▁field	-1509
▁Napoleon	-1510
▁prop	-1511
▁trans	-1512
▁possess	-1513
ec	-1514
aving	-1515
▁equ	-1516
▁Mos	-1517
lysses	-1518
br	-1519
▁Eliz	-1520
▁rose	-1521
of	-1522
▁exist	-1523
▁friends	-1524
▁Gree	-1525
ils	-1526
use	-1527
▁hair	-1528
▁dem	-1529
iful	-1530
▁able	-1531
▁god	-1532
▁truth	-1533
▁Rue	-1534
anced	-1535
▁family	-1536
tern	-1537
cer	-1538
▁cou	-1539
▁often	-1540
▁ce	-1541
abeth	-1542
▁Mary	-1543
▁cold	-1544
▁elect	-1545
oss	-1546
▁subject	-1547
▁conv	-1548
▁cut	-1549
▁lead	-1550
▁husband	-1551
▁Elizabeth	-1552
▁grand	-1553
▁creat	-1554
▁appeared	-1555
▁mer	-1556
▁spir	-1557
▁Ulysses	-1558
alked	-1559
iling	-1560
cell	-1561
king	-1562
▁Mosc	-1563
▁copy	-1564
▁repe	-1565
."	-1566
sk	-1567
arp	-1568
▁Dantès	-1569
▁bad	-1570
▁bring	-1571
▁shad	-1572
▁Emperor	-1573
▁Not	-1574
ev	-1575
▁Moscow	-1576
rig	-1577
▁fellow	-1578
▁Gre	-1579
▁instant	-1580
?’	-1581
ster	-1582
der	-1583
que	-1584
▁pain	-1585
for	-1586
outh	-1587
▁forth	-1588
▁direct	-1589
vern	-1590
▁bir	-1591
▁answer	-1592
▁partic	-1593
▁sto	-1594
▁crow	-1595
▁walk	-1596
▁women	-1597
▁terrible	-1598
ledge	-1599
▁gard	-1600
▁pay	-1601
▁yes	-1602
where	-1603
▁taking	-1604
alth	-1605
crib	-1606
▁ten	-1607
▁stud	-1608
▁respect	-1609
head	-1610
▁imag	-1611
▁making	-1612
▁feeling	-1613
▁low	-1614
▁sad	-1615
▁master	-1616
▁gaz	-1617
▁cross	-1618
▁unc	-1619
▁known	-1620
▁ready	-1621
gg	-1622
▁18	-1623
▁prep	-1624
▁stren	-1625
ury	-1626
▁desp	-1627
▁followed	-1628
orn	-1629
anged	-1630
▁quar	-1631
▁tem	-1632
▁consider	-1633
form	-1634
▁force	-1635
AR	-1636
omp	-1637
room	-1638
▁plain	-1639
▁bu	-1640
▁inqu	-1641
but	-1642
▁fix	-1643
My	-1644
▁town	-1645
▁perfect	-1646
▁comple	-1647
iar	-1648
▁mil	-1649
▁past	-1650
lem	-1651
▁sever	-1652
▁remain	-1653
ogn	-1654
▁flo	-1655
▁fair	-1656
erm	-1657
iet	-1658
ead	-1659
ening	-1660
▁surpr	-1661
▁jo	-1662
rupt	-1663
▁seems	-1664
▁during	-1665
ney	-1666
▁drew	-1667
ush	-1668
▁Do	-1669
aw	-1670
▁mur	-1671
▁vi	-1672
▁Yes	-1673
rence	-1674
ublic	-1675
▁disp	-1676
resh	-1677
▁excell	-1678
vel	-1679
ronic	-1680
▁incl	-1681
entine	-1682
▁visit	-1683
orses	-1684
▁const	-1685
▁eng	-1686
▁object	-1687
▁stay	-1688
▁prison	-1689
IN	-1690
cri	-1691
body	-1692
▁pray	-1693
▁cause	-1694
▁sometimes	-1695
▁dream	-1696
▁squ	-1697
itude	-1698
▁reached	-1699
olas	-1700
vert	-1701
▁used	-1702
bs	-1703
▁Un	-1704
▁sit	-1705
ining	-1706
▁Pl	-1707
▁evid	-1708
▁mount	-1709
▁fle	-1710
▁kept	-1711
▁different	-1712
▁gods	-1713
▁placed	-1714
bed	-1715
ott	-1716
▁cat	-1717
▁diffic	-1718
▁expression	-1719
isf	-1720
over	-1721
iously	-1722
▁Eng	-1723
icholas	-1724
▁OF	-1725
▁electronic	-1726
▁horses	-1727
▁beautiful	-1728
▁cry	-1729
▁emb	-1730
▁cent	-1731
▁post	-1732
ask	-1733
▁di	-1734
ices	-1735
▁tor	-1736
▁phil	-1737
dle	-1738
ues	-1739
ump	-1740
▁fine	-1741
illes	-1742
▁hero	-1743
ollect	-1744
▁impos	-1745
▁raised	-1746
),	-1747
▁Let	-1748
▁acqu	-1749
▁mere	-1750
ops	-1751
▁book	-1752
ze	-1753
▁terms	-1754
ib	-1755
▁Jove	-1756
Why	-1757
iment	-1758
▁agre	-1759
▁soci	-1760
laimed	-1761
▁These	-1762
ym	-1763
▁age	-1764
▁mod	-1765
▁une	-1766
▁Valentine	-1767
▁From	-1768
osop	-1769
ceive	-1770
ouble	-1771
ative	-1772
▁month	-1773
▁Nicholas	-1774
ancs	-1775
▁twenty	-1776
lect	-1777
ize	-1778
▁gall	-1779
▁stri	-1780
▁attack	-1781
▁captain	-1782
_.	-1783
How	-1784
▁wonder	-1785
▁Is	-1786
▁wis	-1787
▁After	-1788
lled	-1789
▁State	-1790
▁francs	-1791
▁pleasure	-1792
ES	-1793
nds	-1794
utes	-1795
▁die	-1796
inted	-1797
▁immedi	-1798
▁except	-1799
▁recogn	-1800
▁convers	-1801
▁cast	-1802
▁forg	-1803
▁line	-1804
▁business	-1805
ieur	-1806
▁prob	-1807
▁learn	-1808
▁strength	-1809
▁silence	-1810
ires	-1811
▁laugh	-1812
▁several	-1813
appe	-1814
like	-1815
▁cra	-1816
▁Prin	-1817
wh	-1818
ones	-1819
ural	-1820
▁bit	-1821
▁mus	-1822
▁philosop	-1823
gr	-1824
▁tro	-1825
▁fright	-1826
ots	-1827
▁glo	-1828
▁contr	-1829
▁3	-1830
▁heav	-1831
▁De	-1832
▁fif	-1833
▁number	-1834
ON	-1835
pid	-1836
▁Sh	-1837
▁tried	-1838
▁account	-1839
▁following	-1840
▁thee	-1841
▁mouth	-1842
onsieur	-1843
▁carriage	-1844
▁eat	-1845
énard	-1846
anz	-1847
inct	-1848
▁boy	-1849
▁justice	-1850
!’	-1851
▁third	-1852
ote	-1853
▁youth	-1854
side	-1855
▁obser	-1856
▁doctor	-1857
▁officer	-1858
▁soldiers	-1859
▁Princess	-1860
▁Pe	-1861
▁crowd	-1862
▁happened	-1863
▁Thénard	-1864
▁pale	-1865
ches	-1866
▁affect	-1867
▁secret	-1868
▁laid	-1869
▁accord	-1870
▁hardly	-1871
▁charact	-1872
▁Her	-1873
▁carried	-1874
ift	-1875
▁doing	-1876
▁hast	-1877
▁drink	-1878
▁event	-1879
▁exclaimed	-1880
▁peace	-1881
._	-1882
▁opin	-1883
lish	-1884
▁struck	-1885
bit	-1886
▁led	-1887
iding	-1888
▁hung	-1889
▁import	-1890
▁comes	-1891
▁seeing	-1892
▁standing	-1893
elle	-1894
▁fast	-1895
ination	-1896
erous	-1897
▁Franz	-1898
aged	-1899
▁happiness	-1900
▁effect	-1901
▁further	-1902
▁turning	-1903
IS	-1904
umb	-1905
▁common	-1906
We	-1907
▁iron	-1908
▁garden	-1909
▁sitting	-1910
oon	-1911
▁proper	-1912
▁position	-1913
If	-1914
amed	-1915
▁danger	-1916
▁pie	-1917
ingly	-1918
▁break	-1919
▁dog	-1920
owers	-1921
▁certainly	-1922
▁city	-1923
▁knowledge	-1924
▁ought	-1925
▁remember	-1926
▁prince	-1927
▁particular	-1928
clock	-1929
▁Well	-1930
▁vict	-1931
▁stopped	-1932
ger	-1933
▁inn	-1934
▁forward	-1935
fer	-1936
ission	-1937
▁impossible	-1938
mes	-1939
what	-1940
▁beneath	-1941
oly	-1942
▁By	-1943
▁carry	-1944
▁dread	-1945
▁dress	-1946
ina	-1947
▁fre	-1948
▁lim	-1949
▁calm	-1950
▁distrib	-1951
▁Oh	-1952
▁burn	-1953
▁attention	-1954
aj	-1955
though	-1956
▁across	-1957
▁speaking	-1958
▁evidently	-1959
▁’	-1960
uff	-1961
▁sus	-1962
ters	-1963
▁Mrs	-1964
▁main	-1965
▁living	-1966
iced	-1967
▁fav	-1968
▁prot	-1969
uous	-1970
▁Ben	-1971
▁purs	-1972
▁Thus	-1973
▁bright	-1974
▁neither	-1975
▁Lu	-1976
ency	-1977
▁fat	-1978
▁fig	-1979
▁regard	-1980
ales	-1981
▁beside	-1982
▁street	-1983
▁mag	-1984
icked	-1985
▁host	-1986
▁year	-1987
▁guard	-1988
▁ast	-1989
▁rev	-1990
tempt	-1991
▁Saint	-1992
ames	-1993
▁ball	-1994
▁tears	-1995
▁satisf	-1996
▁hat	-1997
▁news	-1998
▁worth	-1999
itation	-2000
▁anyone	-2001
bour	-2002
▁Kut	-2003
▁Found	-2004
▁evil	-2005
▁produ	-2006
▁5	-2007
▁av	-2008
There	-2009
arent	-2010
▁wanted	-2011
zov	-2012
itions	-2013
▁delight	-2014
Do	-2015
▁Foundation	-2016
asion	-2017
▁steps	-2018
uted	-2019
▁len	-2020
▁corner	-2021
sib	-2022
▁Thénardier	-2023
▁sail	-2024
▁conc	-2025
▁desce	-2026
▁suppose	-2027
▁jud	-2028
▁auth	-2029
▁viol	-2030
▁dut	-2031
▁perm	-2032
▁Why	-2033
▁def	-2034
▁bound	-2035
▁knows	-2036
ality	-2037
pping	-2038
▁lips	-2039
▁quiet	-2040
▁remark	-2041
▁bear	-2042
▁arr	-2043
▁mat	-2044
▁anim	-2045
——	-2046
olute	-2047
▁Miss	-2048
▁din	-2049
▁hours	-2050
▁drawing	-2051
▁emp	-2052
▁port	-2053
▁former	-2054
▁rapid	-2055
ivid	-2056
▁Ach	-2057
▁fan	-2058
ges	-2059
ras	-2060
...”	-2061
▁arrived	-2062
AN	-2063
▁vain	-2064
▁moved	-2065
▁watch	-2066
bo	-2067
ging	-2068
rage	-2069
▁rich	-2070
▁summ	-2071
▁wild	-2072
▁glass	-2073
▁sweet	-2074
▁effort	-2075
▁silent	-2076
▁inform	-2077
▁mention	-2078
▁character	-2079
usion	-2080
▁boat	-2081
▁story	-2082
▁enc	-2083
▁Ahab	-2084
▁prev	-2085
▁slow	-2086
▁occur	-2087
▁wished	-2088
ius	-2089
▁est	-2090
▁eight	-2091
▁later	-2092
▁necessary	-2093
▁Nor	-2094
▁wine	-2095
erc	-2096
▁lie	-2097
▁coun	-2098
▁entire	-2099
▁princi	-2100
▁4	-2101
▁agree	-2102
▁length	-2103
kn	-2104
▁grie	-2105
▁pret	-2106
▁charm	-2107
▁closed	-2108
▁princess	-2109
ler	-2110
▁scar	-2111
itten	-2112
▁conce	-2113
ony	-2114
uct	-2115
raid	-2116
▁band	-2117
▁glad	-2118
▁purp	-2119
▁succ	-2120
▁change	-2121
umed	-2122
▁occup	-2123
just	-2124
▁pock	-2125
▁Sc	-2126
▁Te	-2127
▁mem	-2128
▁harm	-2129
▁lady	-2130
▁fixed	-2131
▁govern	-2132
semb	-2133
▁whis	-2134
▁trees	-2135
,"	-2136
▁Or	-2137
▁self	-2138
val	-2139
▁Here	-2140
▁show	-2141
▁single	-2142
▁thoughts	-2143
▁beginning	-2144
▁immediately	-2145
ley	-2146
▁minutes	-2147
emois	-2148
vere	-2149
▁gun	-2150
▁late	-2151
emoiselle	-2152
▁makes	-2153
:--	-2154
▁sol	-2155
▁Hol	-2156
▁experi	-2157
▁tone	-2158
▁Russian	-2159
▁countess	-2160
cing	-2161
▁paper	-2162
▁opinion	-2163
tend	-2164
▁killed	-2165
ob	-2166
▁Cap	-2167
▁spo	-2168
▁thick	-2169
▁afraid	-2170
yr	-2171
hov	-2172
▁reply	-2173
▁disappe	-2174
▁fut	-2175
▁loud	-2176
▁paid	-2177
▁virt	-2178
▁honor	-2179
▁pen	-2180
OR	-2181
khov	-2182
▁blue	-2183
inary	-2184
▁fate	-2185
▁straight	-2186
▁soft	-2187
▁conversation	-2188
cks	-2189
ours	-2190
apter	-2191
▁fing	-2192
tained	-2193
▁circum	-2194
▁proceed	-2195
raph	-2196
yond	-2197
▁complete	-2198
net	-2199
▁val	-2200
▁green	-2201
retched	-2202
▁fly	-2203
ilt	-2204
light	-2205
▁sense	-2206
asp	-2207
▁suit	-2208
▁Of	-2209
Then	-2210
▁Pet	-2211
▁try	-2212
▁Some	-2213
▁vill	-2214
▁neigh	-2215
▁demand	-2216
▁spirit	-2217
▁presence	-2218
▁thinking	-2219
anks	-2220
▁kill	-2221
▁tremb	-2222
▁author	-2223
under	-2224
▁below	-2225
▁gloom	-2226
▁slight	-2227
▁sorrow	-2228
▁talking	-2229
▁distance	-2230
▁understood	-2231
ustom	-2232
▁future	-2233
▁Who	-2234
▁accept	-2235
lies	-2236
▁repeated	-2237
▁anx	-2238
▁Plat	-2239
▁court	-2240
▁hig	-2241
avert	-2242
▁mine	-2243
▁Holmes	-2244
▁dinner	-2245
nya	-2246
ration	-2247
▁desire	-2248
▁darkness	-2249
IT	-2250
▁lived	-2251
▁loved	-2252
▁public	-2253
oose	-2254
▁mass	-2255
▁reach	-2256
▁breast	-2257
▁caught	-2258
▁troops	-2259
▁address	-2260
▁orders	-2261
ónya	-2262
▁lab	-2263
▁maid	-2264
▁warm	-2265
▁forget	-2266
▁English	-2267
▁occasion	-2268
▁Den	-2269
▁walked	-2270
ned	-2271
▁bow	-2272
▁fresh	-2273
▁threw	-2274
▁Javert	-2275
▁broken	-2276
▁history	-2277
oned	-2278
▁top	-2279
▁shore	-2280
In	-2281
sov	-2282
ored	-2283
cience	-2284
.]	-2285
ooh	-2286
▁box	-2287
▁intell	-2288
ics	-2289
ubb	-2290
▁sal	-2291
▁While	-2292
▁grave	-2293
olution	-2294
ón	-2295
▁won	-2296
antly	-2297
▁floor	-2298
▁breath	-2299
▁soldier	-2300
▁pat	-2301
ND	-2302
cient	-2303
▁wait	-2304
lig	-2305
eness	-2306
itary	-2307
▁laws	-2308
▁Every	-2309
▁meant	-2310
▁Hector	-2311
▁nearly	-2312
▁destroy	-2313
bb	-2314
▁Troy	-2315
▁Bor	-2316
▁Cad	-2317
▁Dar	-2318
ented	-2319
▁weak	-2320
▁beyond	-2321
▁seized	-2322
aled	-2323
▁big	-2324
▁cre	-2325
▁none	-2326
ísov	-2327
▁sho	-2328
▁comb	-2329
▁belong	-2330
▁Ne	-2331
▁kiss	-2332
loy	-2333
par	-2334
▁deal	-2335
▁Am	-2336
ancing	-2337
▁action	-2338
▁report	-2339
▁waiting	-2340
ume	-2341
ries	-2342
▁ago	-2343
▁Darcy	-2344
ically	-2345
morrow	-2346
▁chance	-2347
▁fortune	-2348
▁purpose	-2349
▁service	-2350
atever	-2351
▁States	-2352
▁escape	-2353
▁quickly	-2354
▁success	-2355
▁Le	-2356
▁Sp	-2357
▁Sónya	-2358
--------	-2359
▁instead	-2360
▁natural	-2361
....	-2362
ager	-2363
▁peas	-2364
▁rul	-2365
▁filled	-2366
▁ann	-2367
ek	-2368
peci	-2369
▁spot	-2370
▁trad	-2371
▁heavy	-2372
▁oppos	-2373
ism	-2374
ected	-2375
▁camp	-2376
▁although	-2377
med	-2378
▁enter	-2379
erousse	-2380
▁sla	-2381
ortal	-2382
▁wrong	-2383
▁Christ	-2384
night	-2385
▁Dor	-2386
▁wit	-2387
▁grew	-2388
▁please	-2389
▁Denísov	-2390
▁shouted	-2391
leep	-2392
▁society	-2393
ists	-2394
▁den	-2395
▁nar	-2396
▁sky	-2397
▁written	-2398
els	-2399
ified	-2400
▁hill	-2401
▁depart	-2402
▁Achilles	-2403
▁Caderousse	-2404
▁appearance	-2405
ises	-2406
ives	-2407
amber	-2408
▁stone	-2409
▁wound	-2410
vna	-2411
▁En	-2412
anch	-2413
▁hop	-2414
ively	-2415
known	-2416
▁pretty	-2417
uel	-2418
▁vol	-2419
▁individ	-2420
▁approach	-2421
▁stranger	-2422
arer	-2423
achus	-2424
lling	-2425
▁easy	-2426
▁utter	-2427
idence	-2428
▁motion	-2429
▁Mademoiselle	-2430
OO	-2431
▁Se	-2432
▁coat	-2433
▁exam	-2434
▁mut	-2435
▁Alice	-2436
▁circumst	-2437
hood	-2438
▁forest	-2439
ET	-2440
▁forgot	-2441
isted	-2442
▁jour	-2443
▁latter	-2444
▁agreement	-2445
▁Ed	-2446
iant	-2447
▁usual	-2448
▁glance	-2449
▁describ	-2450
▁copyright	-2451
▁middle	-2452
▁wounded	-2453
▁movement	-2454
▁individual	-2455
▁mill	-2456
▁alarm	-2457
ady	-2458
angu	-2459
▁firm	-2460
▁study	-2461
urg	-2462
lace	-2463
▁plan	-2464
▁Van	-2465
▁pal	-2466
▁duty	-2467
▁marry	-2468
▁merely	-2469
▁toward	-2470
▁gentleman	-2471
cked	-2472
omer	-2473
▁ign	-2474
▁Where	-2475
▁prevent	-2476
asure	-2477
▁clot	-2478
▁pocket	-2479
eds	-2480
ees	-2481
▁fal	-2482
▁employ	-2483
▁Chapter	-2484
ah	-2485
pit	-2486
ouses	-2487
culiar	-2488
gor	-2489
▁Tro	-2490
▁mark	-2491
ection	-2492
▁allow	-2493
▁spread	-2494
▁officers	-2495
co	-2496
cerf	-2497
▁neck	-2498
▁train	-2499
wo	-2500
aff	-2501
idge	-2502
▁simple	-2503
▁direction	-2504
non	-2505
ugg	-2506
▁gro	-2507
▁blind	-2508
▁peculiar	-2509
▁bold	-2510
▁race	-2511
▁Morcerf	-2512
▁greater	-2513
▁marriage	-2514
dom	-2515
▁King	-2516
▁shut	-2517
▁noble	-2518
▁attempt	-2519
▁und	-2520
jo	-2521
This	-2522
ision	-2523
▁cost	-2524
▁silver	-2525
▁covered	-2526
▁noticed	-2527
ding	-2528
▁Fau	-2529
▁trave	-2530
pecially	-2531
▁outside	-2532
▁perform	-2533
anging	-2534
▁Plato	-2535
▁formed	-2536
▁probably	-2537
aped	-2538
▁lif	-2539
▁running	-2540
teen	-2541
▁pull	-2542
▁seven	-2543
▁courage	-2544
OU	-2545
▁brave	-2546
▁deser	-2547
▁getting	-2548
pend	-2549
▁van	-2550
▁aston	-2551
▁giving	-2552
▁includ	-2553
▁meaning	-2554
▁lean	-2555
▁smoke	-2556
ously	-2557
▁died	-2558
▁save	-2559
▁lower	-2560
▁treat	-2561
▁beauty	-2562
▁result	-2563
Now	-2564
ades	-2565
▁conn	-2566
▁infl	-2567
▁walls	-2568
▁slowly	-2569
Come	-2570
cely	-2571
▁pit	-2572
▁leaving	-2573
verse	-2574
▁educ	-2575
▁fier	-2576
▁da	-2577
reme	-2578
▁simp	-2579
▁wide	-2580
▁apart	-2581
▁France	-2582
▁fallen	-2583
othy	-2584
urch	-2585
▁send	-2586
▁broad	-2587
▁early	-2588
▁passing	-2589
▁pa	-2590
▁Bar	-2591
▁maj	-2592
▁bank	-2593
▁pity	-2594
▁asleep	-2595
▁afterwards	-2596
now	-2597
ague	-2598
▁Troj	-2599
▁exact	-2600
▁Dorothy	-2601
Book	-2602
▁por	-2603
▁becom	-2604
▁passage	-2605
urs	-2606
ring	-2607
▁suc	-2608
▁succeed	-2609
▁expected	-2610
ests	-2611
▁pun	-2612
▁var	-2613
▁cart	-2614
erable	-2615
▁absolute	-2616
ys	-2617
▁Mar	-2618
▁months	-2619
RE	-2620
ólo	-2621
ishop	-2622
▁bott	-2623
▁incre	-2624
▁comfort	-2625
▁married	-2626
uit	-2627
▁prec	-2628
OM	-2629
go	-2630
aded	-2631
aval	-2632
▁grow	-2633
hale	-2634
▁furn	-2635
▁advant	-2636
▁listened	-2637
ici	-2638
▁cab	-2639
▁rid	-2640
▁Arch	-2641
▁Pooh	-2642
▁angry	-2643
▁greatest	-2644
SE	-2645
ories	-2646
▁trying	-2647
inal	-2648
▁defe	-2649
tended	-2650
▁shoulders	-2651
▁especially	-2652
▁police	-2653
▁smiled	-2654
▁despair	-2655
▁important	-2656
▁deg	-2657
▁que	-2658
ences	-2659
▁dust	-2660
▁trouble	-2661
uge	-2662
▁med	-2663
▁chair	-2664
▁concl	-2665
▁holding	-2666
TI	-2667
ma	-2668
▁stat	-2669
▁lying	-2670
▁separ	-2671
▁servant	-2672
ski	-2673
itated	-2674
▁burst	-2675
ertainly	-2676
▁collect	-2677
▁quarter	-2678
▁retreat	-2679
000	-2680
▁Ag	-2681
▁mel	-2682
▁smiling	-2683
ners	-2684
oured	-2685
▁bell	-2686
ishing	-2687
▁polit	-2688
▁barric	-2689
▁orig	-2690
▁ideas	-2691
▁surprise	-2692
III	-2693
aire	-2694
▁determ	-2695
▁commander	-2696
▁fee	-2697
▁party	-2698
ompan	-2699
osing	-2700
▁Rome	-2701
▁super	-2702
▁according	-2703
▁seat	-2704
▁notice	-2705
▁whatever	-2706
▁civ	-2707
▁cand	-2708
▁ancient	-2709
Not	-2710
rect	-2711
sequ	-2712
▁arg	-2713
▁river	-2714
▁easily	-2715
▁figure	-2716
▁possib	-2717
To	-2718
aly	-2719
uly	-2720
ship	-2721
▁heads	-2722
▁Bennet	-2723
▁perfectly	-2724
UL	-2725
eks	-2726
ike	-2727
▁Tr	-2728
▁note	-2729
▁piece	-2730
▁United	-2731
mond	-2732
pper	-2733
▁clo	-2734
cript	-2735
▁liber	-2736
▁rage	-2737
▁spite	-2738
▁regiment	-2739
axim	-2740
▁empt	-2741
▁gate	-2742
irtier	-2743
▁grief	-2744
▁houses	-2745
do	-2746
held	-2747
▁Just	-2748
▁hunt	-2749
icense	-2750
▁sides	-2751
▁everyone	-2752
ior	-2753
▁dw	-2754
▁tree	-2755
▁eBook	-2756
▁unknown	-2757
▁difficult	-2758
joy	-2759
▁sy	-2760
▁divine	-2761
▁allowed	-2762
▁persons	-2763
▁excellency	-2764
bor	-2765
wor	-2766
▁Ph	-2767
wise	-2768
▁fro	-2769
▁phy	-2770
▁pract	-2771
▁journey	-2772
▁reflect	-2773
▁disappeared	-2774
ais	-2775
uss	-2776
▁ves	-2777
▁eager	-2778
▁Noirtier	-2779
oh	-2780
ays	-2781
yal	-2782
▁La	-2783
▁situ	-2784
▁lives	-2785
cial	-2786
happ	-2787
▁Yet	-2788
inite	-2789
▁Mont	-2790
▁flew	-2791
▁priv	-2792
▁faith	-2793
▁rising	-2794
▁receive	-2795
▁serious	-2796
▁support	-2797
▁contrary	-2798
Is	-2799
ton	-2800
▁surr	-2801
ólokhov	-2802
▁pleased	-2803
ingu	-2804
ouis	-2805
▁blow	-2806
▁lies	-2807
▁poet	-2808
▁bread	-2809
▁sharp	-2810
▁charge	-2811
▁tender	-2812
▁feelings	-2813
▁twel	-2814
seless	-2815
▁teeth	-2816
▁golden	-2817
▁Dólokhov	-2818
pic	-2819
▁Such	-2820
▁commun	-2821
ails	-2822
ashed	-2823
▁exec	-2824
▁scene	-2825
▁health	-2826
▁company	-2827
▁interrupt	-2828
esty	-2829
▁har	-2830
▁island	-2831
▁spring	-2832
▁vessel	-2833
OOK	-2834
ald	-2835
▁thin	-2836
▁music	-2837
▁stern	-2838
▁dressed	-2839
ien	-2840
ator	-2841
▁win	-2842
▁Homer	-2843
▁oblig	-2844
ishment	-2845
gy	-2846
iod	-2847
bered	-2848
▁appears	-2849
ming	-2850
▁hide	-2851
ushing	-2852
,000	-2853
rate	-2854
▁hot	-2855
ander	-2856
enced	-2857
ested	-2858
▁stro	-2859
▁Whale	-2860
▁class	-2861
iterary	-2862
▁crew	-2863
▁false	-2864
▁shadow	-2865
▁virtue	-2866
▁promise	-2867
—“	-2868
▁bent	-2869
▁food	-2870
▁spect	-2871
ham	-2872
They	-2873
ases	-2874
lsing	-2875
▁sake	-2876
▁bless	-2877
▁Helsing	-2878
rid	-2879
▁er	-2880
come	-2881
play	-2882
ulty	-2883
▁Per	-2884
▁smo	-2885
agraph	-2886
▁enjoy	-2887
▁bottom	-2888
▁showed	-2889
▁opposite	-2890
▁paragraph	-2891
fast	-2892
gged	-2893
lemn	-2894
▁sch	-2895
▁tall	-2896
fortun	-2897
ingley	-2898
▁proud	-2899
▁shook	-2900
▁yield	-2901
▁minute	-2902
▁solemn	-2903
▁terror	-2904
▁thunder	-2905
org	-2906
rea	-2907
▁snow	-2908
▁events	-2909
▁Captain	-2910
▁touched	-2911
arily	-2912
ilian	-2913
▁safe	-2914
pected	-2915
▁Bingley	-2916
▁Monsieur	-2917
▁questions	-2918
how	-2919
▁Ly	-2920
▁dim	-2921
▁fun	-2922
idered	-2923
▁imper	-2924
▁langu	-2925
▁noise	-2926
▁sword	-2927
▁histor	-2928
cr	-2929
▁XV	-2930
athan	-2931
▁imagine	-2932
▁accompan	-2933
kh	-2934
ís	-2935
pon	-2936
rill	-2937
▁started	-2938
ustration	-2939
▁distingu	-2940
▁entirely	-2941
tled	-2942
ument	-2943
▁murm	-2944
▁habit	-2945
▁Br	-2946
race	-2947
▁sli	-2948
▁Merc	-2949
▁legs	-2950
▁drawn	-2951
▁ignor	-2952
ception	-2953
▁conscious	-2954
ye	-2955
aste	-2956
▁eld	-2957
ortun	-2958
▁obey	-2959
▁pict	-2960
▁yell	-2961
▁ships	-2962
▁gentlemen	-2963
▁ears	-2964
▁pointed	-2965
▁finished	-2966
▁difficulty	-2967
▁See	-2968
arked	-2969
▁conqu	-2970
▁trust	-2971
▁twelve	-2972
▁various	-2973
So	-2974
oted	-2975
roche	-2976
▁gazed	-2977
▁access	-2978
▁stream	-2979
▁ourselves	-2980
yl	-2981
hel	-2982
▁knees	-2983
▁Andrea	-2984
▁assist	-2985
▁changed	-2986
▁concern	-2987
olog	-2988
▁Gav	-2989
▁aim	-2990
▁ble	-2991
▁beat	-2992
ounced	-2993
▁broke	-2994
▁letters	-2995
▁visible	-2996
▁dreadful	-2997
▁shoulder	-2998
dd	-2999
kes	-3000
ouds	-3001
▁pac	-3002
▁Jane	-3003
▁rise	-3004
▁sacri	-3005
▁seated	-3006
▁Gavroche	-3007
▁observed	-3008
▁affection	-3009
▁dart	-3010
▁path	-3011
▁sens	-3012
▁drove	-3013
ference	-3014
theless	-3015
▁forced	-3016
▁knowing	-3017
▁scarcely	-3018
rop	-3019
ruct	-3020
▁gen	-3021
▁hid	-3022
▁wol	-3023
▁dare	-3024
▁tail	-3025
▁Edmond	-3026
rer	-3027
ples	-3028
▁Min	-3029
tering	-3030
▁barricade	-3031
▁Lord	-3032
▁bore	-3033
▁vast	-3034
▁famil	-3035
▁storm	-3036
lin	-3037
oup	-3038
rem	-3039
ilar	-3040
▁Made	-3041
▁amid	-3042
▁bare	-3043
▁ring	-3044
levent	-3045
▁fifty	-3046
▁royal	-3047
▁caused	-3048
▁myster	-3049
iny	-3050
onel	-3051
▁ant	-3052
▁cook	-3053
▁press	-3054
▁listen	-3055
▁suffici	-3056
▁6	-3057
THE	-3058
zen	-3059
lovna	-3060
retch	-3061
▁unhapp	-3062
▁creature	-3063
oved	-3064
emark	-3065
▁Anna	-3066
▁capt	-3067
▁miss	-3068
father	-3069
▁indic	-3070
▁recei	-3071
▁moving	-3072
▁display	-3073
▁abb	-3074
▁moon	-3075
▁write	-3076
▁Gregor	-3077
▁beheld	-3078
▁church	-3079
CT	-3080
iff	-3081
ray	-3082
▁ur	-3083
▁tow	-3084
uting	-3085
▁Beau	-3086
ternal	-3087
▁board	-3088
▁decided	-3089
▁learned	-3090
▁education	-3091
atic	-3092
pered	-3093
▁Lond	-3094
▁cloud	-3095
▁faces	-3096
▁affair	-3097
▁honour	-3098
▁places	-3099
▁contain	-3100
▁existence	-3101
?"	-3102
éd	-3103
▁Lucy	-3104
▁lose	-3105
▁shud	-3106
iction	-3107
▁Fauche	-3108
▁village	-3109
▁trembling	-3110
anqu	-3111
▁avo	-3112
leine	-3113
▁fool	-3114
▁Borís	-3115
▁intro	-3116
▁worse	-3117
▁inquired	-3118
▁Madeleine	-3119
▁advantage	-3120
▁presented	-3121
▁frightened	-3122
▁Fauchelevent	-3123
uls	-3124
burg	-3125
▁aside	-3126
ability	-3127
▁Archive	-3128
▁chamber	-3129
▁Dr	-3130
Good	-3131
aves	-3132
aling	-3133
olved	-3134
▁Literary	-3135
ghed	-3136
▁stop	-3137
▁wrote	-3138
▁ladies	-3139
▁simply	-3140
CE	-3141
▁loc	-3142
ament	-3143
▁didn	-3144
▁Their	-3145
▁fault	-3146
▁clothes	-3147
▁conduct	-3148
▁disg	-3149
▁ming	-3150
ashion	-3151
▁flight	-3152
▁repres	-3153
▁thrown	-3154
Ill	-3155
Who	-3156
▁rock	-3157
▁rode	-3158
▁vent	-3159
▁wise	-3160
▁girls	-3161
▁influ	-3162
▁touch	-3163
▁London	-3164
▁attend	-3165
▁spoken	-3166
▁confess	-3167
▁walking	-3168
▁profound	-3169
while	-3170
▁coff	-3171
▁goes	-3172
▁weep	-3173
▁admir	-3174
▁alive	-3175
▁superi	-3176
▁unable	-3177
▁approached	-3178
bl	-3179
Let	-3180
she	-3181
umn	-3182
aked	-3183
▁rushed	-3184
▁voices	-3185
▁streets	-3186
cure	-3187
▁Mart	-3188
▁dism	-3189
▁magn	-3190
▁begun	-3191
▁obtain	-3192
▁period	-3193
▁However	-3194
▁ordered	-3195
▁servants	-3196
▁Pé	-3197
arsh	-3198
▁parts	-3199
▁gloomy	-3200
▁military	-3201
▁occurred	-3202
▁perceived	-3203
Illustration	-3204
?—	-3205
▁Sun	-3206
▁strugg	-3207
▁opening	-3208
▁passion	-3209
▁uttered	-3210
▁forgotten	-3211
amb	-3212
app	-3213
ieu	-3214
set	-3215
ulf	-3216
▁IN	-3217
▁Bou	-3218
▁sac	-3219
▁sen	-3220
▁Aust	-3221
▁BOOK	-3222
▁aband	-3223
▁likely	-3224
▁unless	-3225
▁windows	-3226
▁condition	-3227
▁awa	-3228
▁inh	-3229
▁Your	-3230
▁bird	-3231
▁ende	-3232
▁phys	-3233
lemachus	-3234
▁writing	-3235
aximilian	-3236
▁distinct	-3237
▁intellig	-3238
ING	-3239
▁fancy	-3240
▁offer	-3241
▁require	-3242
▁occupied	-3243
iles	-3244
▁Jon	-3245
izing	-3246
▁equal	-3247
▁Greece	-3248
▁engaged	-3249
▁opportun	-3250
▁property	-3251
▁philosophy	-3252
▁remembered	-3253
▁sple	-3254
▁Bishop	-3255
▁handsome	-3256
LE	-3257
af	-3258
cle	-3259
lex	-3260
▁crown	-3261
▁suffer	-3262
▁talked	-3263
▁advanced	-3264
tya	-3265
▁Gu	-3266
▁hes	-3267
▁ver	-3268
▁harp	-3269
▁shot	-3270
▁sick	-3271
▁compl	-3272
▁clouds	-3273
▁besides	-3274
▁hurried	-3275
gs	-3276
gin	-3277
▁Re	-3278
hest	-3279
soci	-3280
▁Vas	-3281
▁cho	-3282
▁More	-3283
▁Will	-3284
▁abbé	-3285
▁cheer	-3286
▁grace	-3287
▁swift	-3288
attered	-3289
▁remarked	-3290
▁Go	-3291
▁fla	-3292
▁entr	-3293
▁extra	-3294
▁papers	-3295
▁sacred	-3296
▁mentioned	-3297
▁neg	-3298
▁hall	-3299
▁seek	-3300
▁Peters	-3301
▁memory	-3302
▁explain	-3303
▁impress	-3304
▁considered	-3305
ios	-3306
atsby	-3307
▁sons	-3308
▁empty	-3309
▁enorm	-3310
▁horror	-3311
▁recall	-3312
▁resemb	-3313
▁superior	-3314
Where	-3315
chief	-3316
terday	-3317
▁lines	-3318
▁advance	-3319
▁donations	-3320
▁bod	-3321
▁midst	-3322
▁associ	-3323
▁inquir	-3324
▁wealth	-3325
▁prepared	-3326
▁satisfied	-3327
▁trademark	-3328
ech	-3329
uses	-3330
▁sym	-3331
▁pure	-3332
▁Pétya	-3333
▁counten	-3334
▁circumstances	-3335
ka	-3336
án	-3337
ín	-3338
acy	-3339
rif	-3340
aker	-3341
édès	-3342
▁ris	-3343
▁civil	-3344
▁dying	-3345
▁looks	-3346
▁glanced	-3347
.,	-3348
vi	-3349
con	-3350
olk	-3351
cian	-3352
▁Bes	-3353
▁Com	-3354
▁Tom	-3355
▁fet	-3356
▁jump	-3357
▁speed	-3358
▁warri	-3359
▁preser	-3360
▁thirty	-3361
▁discovered	-3362
——”	-3363
▁deck	-3364
▁mour	-3365
▁ones	-3366
▁chest	-3367
▁devil	-3368
▁takes	-3369
▁splend	-3370
▁affairs	-3371
▁rapidly	-3372
▁wretched	-3373
▁surprised	-3374
▁government	-3375
ex	-3376
pse	-3377
▁[1	-3378
antic	-3379
▁rain	-3380
▁Stubb	-3381
▁gives	-3382
ancholy	-3383
▁Gatsby	-3384
▁parent	-3385
▁charming	-3386
ae	-3387
▁der	-3388
▁gar	-3389
ruction	-3390
▁Father	-3391
▁endeav	-3392
▁mighty	-3393
▁sought	-3394
▁resumed	-3395
▁prisoner	-3396
AL	-3397
jol	-3398
▁fish	-3399
ndered	-3400
▁prove	-3401
▁bitter	-3402
▁higher	-3403
▁reading	-3404
ED	-3405
IL	-3406
no	-3407
nde	-3408
▁XX	-3409
▁pet	-3410
▁tyr	-3411
champ	-3412
▁Come	-3413
▁Vasí	-3414
▁pier	-3415
▁star	-3416
orious	-3417
▁similar	-3418
▁laughing	-3419
▁recollect	-3420
▁Ex	-3421
▁Two	-3422
istol	-3423
▁consequ	-3424
▁Telemachus	-3425
▁et	-3426
▁unf	-3427
▁Only	-3428
▁unex	-3429
▁glory	-3430
▁distant	-3431
▁suitors	-3432
▁acquaint	-3433
▁breakfast	-3434
▁companion	-3435
mer	-3436
uee	-3437
unk	-3438
queg	-3439
upid	-3440
gress	-3441
▁brow	-3442
▁join	-3443
ormand	-3444
▁shame	-3445
ueequeg	-3446
▁height	-3447
▁fashion	-3448
▁obliged	-3449
▁Maximilian	-3450
▁philosopher	-3451
vey	-3452
▁wed	-3453
iform	-3454
▁stir	-3455
▁space	-3456
▁behold	-3457
▁fields	-3458
▁served	-3459
▁waited	-3460
▁clearly	-3461
▁introdu	-3462
▁melancholy	-3463
zz	-3464
▁Gr	-3465
▁coll	-3466
action	-3467
▁innoc	-3468
▁powers	-3469
▁sprang	-3470
▁possession	-3471
gel	-3472
pond	-3473
▁aid	-3474
▁alt	-3475
▁dam	-3476
▁uni	-3477
aming	-3478
▁thro	-3479
jolras	-3480
▁decla	-3481
▁design	-3482
▁laughed	-3483
po	-3484
pir	-3485
▁Cl	-3486
▁Fl	-3487
umph	-3488
▁dom	-3489
▁gain	-3490
▁examp	-3491
▁vague	-3492
▁double	-3493
▁uniform	-3494
▁generally	-3495
▁Petersburg	-3496
!—	-3497
▁Me	-3498
cies	-3499
▁Sil	-3500
▁pati	-3501
▁forms	-3502
▁matters	-3503
▁offered	-3504
▁witness	-3505
▁expressed	-3506
zy	-3507
▁ash	-3508
▁fold	-3509
▁sugg	-3510
▁Louis	-3511
▁crime	-3512
▁shock	-3513
▁uneas	-3514
▁bridge	-3515
▁happen	-3516
▁paused	-3517
▁produced	-3518
▁excellent	-3519
When	-3520
athe	-3521
long	-3522
▁mir	-3523
▁nose	-3524
▁build	-3525
▁freed	-3526
▁knock	-3527
▁repro	-3528
▁mysterious	-3529
▁recognized	-3530
ée	-3531
ran	-3532
ether	-3533
▁roof	-3534
racted	-3535
vering	-3536
▁supper	-3537
▁threat	-3538
▁Enjolras	-3539
▁Mercédès	-3540
▁Sm	-3541
▁id	-3542
▁May	-3543
▁amb	-3544
▁cow	-3545
▁earn	-3546
▁degree	-3547
▁yellow	-3548
▁evident	-3549
▁extreme	-3550
▁flowers	-3551
▁unhappy	-3552
▁Tz	-3553
kind	-3554
this	-3555
▁key	-3556
▁Cour	-3557
▁reve	-3558
▁tong	-3559
▁share	-3560
▁spent	-3561
osition	-3562
▁explan	-3563
rac	-3564
irst	-3565
oped	-3566
▁sor	-3567
▁week	-3568
▁Greeks	-3569
▁moments	-3570
▁enormous	-3571
▁permission	-3572
nce	-3573
ohn	-3574
anted	-3575
▁Even	-3576
▁nine	-3577
eneral	-3578
▁slain	-3579
▁search	-3580
▁whales	-3581
▁Beauchamp	-3582
bre	-3583
▁pi	-3584
crow	-3585
uded	-3586
▁AND	-3587
▁cit	-3588
▁fill	-3589
▁Never	-3590
▁encoun	-3591
▁pistol	-3592
▁discuss	-3593
▁pressed	-3594
▁addressed	-3595
▁interrupted	-3596
ept	-3597
ulous	-3598
itable	-3599
▁Greek	-3600
▁depth	-3601
▁favor	-3602
▁pride	-3603
▁Vasíli	-3604
▁nearer	-3605
▁burning	-3606
▁meeting	-3607
▁remains	-3608
▁triumph	-3609
▁promised	-3610
▁countenance	-3611
St	-3612
aud	-3613
cil	-3614
str	-3615
onap	-3616
▁Man	-3617
inced	-3618
inous	-3619
▁beast	-3620
▁proof	-3621
▁mortal	-3622
▁curious	-3623
▁someone	-3624
▁everybody	-3625
Here	-3626
▁Car	-3627
▁due	-3628
illen	-3629
▁accom	-3630
▁falling	-3631
▁hearing	-3632
▁immense	-3633
▁information	-3634
OL	-3635
ao	-3636
my	-3637
nat	-3638
ital	-3639
inated	-3640
▁Gillen	-3641
▁Trojan	-3642
▁science	-3643
▁required	-3644
▁singular	-3645
▁listening	-3646
TH	-3647
She	-3648
▁du	-3649
look	-3650
will	-3651
▁mix	-3652
▁sav	-3653
ardon	-3654
▁Alex	-3655
▁fond	-3656
▁saved	-3657
▁thank	-3658
▁contem	-3659
▁narrow	-3660
▁Gillenormand	-3661
▁Ap	-3662
acle	-3663
▁Ger	-3664
▁pop	-3665
▁sin	-3666
▁cell	-3667
▁emer	-3668
▁coach	-3669
▁names	-3670
▁distur	-3671
▁dropped	-3672
▁carefully	-3673
▁yesterday	-3674
▁particularly	-3675
▁adj	-3676
▁march	-3677
▁watched	-3678
ify	-3679
Your	-3680
▁pra	-3681
board	-3682
usted	-3683
▁meth	-3684
▁clean	-3685
▁worthy	-3686
▁ge	-3687
▁aud	-3688
▁John	-3689
▁lord	-3690
▁bowed	-3691
▁grasp	-3692
▁liberty	-3693
▁removed	-3694
All	-3695
rom	-3696
arse	-3697
arest	-3698
▁baron	-3699
▁delic	-3700
▁faint	-3701
▁frequ	-3702
▁comply	-3703
▁inside	-3704
▁settled	-3705
▁station	-3706
▁language	-3707
▁grandfather	-3708
áv	-3709
teau	-3710
▁Jul	-3711
imate	-3712
▁fart	-3713
▁rule	-3714
arecrow	-3715
▁kissed	-3716
▁shadows	-3717
▁forehead	-3718
CH	-3719
bers	-3720
enth	-3721
keep	-3722
▁Lady	-3723
▁asce	-3724
antine	-3725
▁drive	-3726
▁inhab	-3727
▁sorry	-3728
▁finger	-3729
▁lifted	-3730
▁tomorrow	-3731
▁watching	-3732
ww	-3733
—”	-3734
oman	-3735
▁Long	-3736
▁song	-3737
ainted	-3738
▁hurry	-3739
▁believed	-3740
él	-3741
gar	-3742
sar	-3743
enge	-3744
rain	-3745
astic	-3746
▁grown	-3747
▁Though	-3748
▁curios	-3749
▁custom	-3750
▁temper	-3751
▁fingers	-3752
▁possessed	-3753
sy	-3754
▁gh	-3755
ites	-3756
▁Pig	-3757
▁foe	-3758
▁Sper	-3759
▁luck	-3760
▁rejo	-3761
▁forty	-3762
▁misery	-3763
▁stupid	-3764
▁wishes	-3765
▁Scarecrow	-3766
▁miserable	-3767
▁situation	-3768
**	-3769
cean	-3770
▁181	-3771
▁cup	-3772
▁sum	-3773
▁voy	-3774
▁cred	-3775
▁throw	-3776
▁pleasant	-3777
▁supposed	-3778
▁experience	-3779
▁opportunity	-3780
isc	-3781
▁ow	-3782
▁Don	-3783
essor	-3784
▁grass	-3785
▁haste	-3786
▁waves	-3787
▁modern	-3788
▁weight	-3789
oms	-3790
rope	-3791
▁fra	-3792
▁inj	-3793
▁Anat	-3794
▁feat	-3795
▁Still	-3796
▁persu	-3797
▁exactly	-3798
▁growing	-3799
▁fit	-3800
▁fury	-3801
▁roll	-3802
▁brain	-3803
▁judge	-3804
▁License	-3805
▁absence	-3806
▁arrival	-3807
▁previous	-3808
com	-3809
itz	-3810
illy	-3811
reet	-3812
▁ruin	-3813
▁relig	-3814
▁troub	-3815
▁asking	-3816
▁states	-3817
atherine	-3818
▁Anatole	-3819
▁useless	-3820
▁lod	-3821
asing	-3822
▁Coll	-3823
▁huge	-3824
▁loss	-3825
▁preced	-3826
▁unjust	-3827
▁greatly	-3828
▁quietly	-3829
▁Certainly	-3830
áy	-3831
fty	-3832
por	-3833
▁Con	-3834
▁dawn	-3835
▁deli	-3836
▁mess	-3837
▁sand	-3838
▁circle	-3839
▁office	-3840
▁peasant	-3841
▁experienced	-3842
ino	-3843
erva	-3844
oura	-3845
▁Our	-3846
▁sew	-3847
▁Char	-3848
▁comr	-3849
▁pick	-3850
▁souls	-3851
▁leaves	-3852
▁spirits	-3853
▁unexpected	-3854
.)	-3855
using	-3856
▁wore	-3857
▁method	-3858
▁apparent	-3859
▁curiosity	-3860
1.	-3861
bray	-3862
dess	-3863
itch	-3864
▁uns	-3865
▁grat	-3866
▁Silver	-3867
▁ceased	-3868
▁condem	-3869
▁fierce	-3870
▁century	-3871
▁somewhat	-3872
On	-3873
mp	-3874
alt	-3875
▁Col	-3876
▁Rep	-3877
▁sink	-3878
▁Besides	-3879
▁Minerva	-3880
▁telling	-3881
▁instinct	-3882
▁neighbor	-3883
▁described	-3884
▁including	-3885
▁influence	-3886
arr	-3887
ker	-3888
▁Ad	-3889
cher	-3890
iety	-3891
with	-3892
▁Had	-3893
field	-3894
▁Mina	-3895
▁bull	-3896
▁Somet	-3897
▁books	-3898
▁group	-3899
▁Piglet	-3900
▁engage	-3901
▁heroes	-3902
▁Nothing	-3903
▁example	-3904
▁Catherine	-3905
▁whispered	-3906
ux	-3907
▁XI	-3908
▁hy	-3909
case	-3910
hold	-3911
urse	-3912
▁feared	-3913
▁speech	-3914
▁thrust	-3915
▁accompl	-3916
▁victory	-3917
▁horrible	-3918
▁necessity	-3919
RO	-3920
▁II	-3921
atch	-3922
▁dry	-3923
▁guns	-3924
▁pack	-3925
▁doors	-3926
▁guess	-3927
▁stock	-3928
▁Before	-3929
▁mingled	-3930
▁private	-3931
▁instantly	-3932
arb	-3933
law	-3934
▁Eu	-3935
▁deb	-3936
▁Socr	-3937
▁Very	-3938
▁Wood	-3939
▁sigh	-3940
▁Great	-3941
▁using	-3942
▁concer	-3943
▁mankind	-3944
▁difference	-3945
acc	-3946
ope	-3947
uce	-3948
▁gay	-3949
asons	-3950
ounds	-3951
▁wolf	-3952
▁Having	-3953
▁cannon	-3954
▁special	-3955
▁succeeded	-3956
ids	-3957
irm	-3958
▁dogs	-3959
stairs	-3960
▁Debray	-3961
▁shield	-3962
▁fighting	-3963
▁principle	-3964
▁understanding	-3965
lly	-3966
▁Ab	-3967
▁born	-3968
▁shown	-3969
ustomed	-3970
▁agreed	-3971
▁becomes	-3972
▁crossed	-3973
▁freedom	-3974
▁familiar	-3975
UT	-3976
oop	-3977
▁TO	-3978
▁Can	-3979
ables	-3980
▁amaz	-3981
▁impro	-3982
▁anxious	-3983
▁provide	-3984
▁suffering	-3985
▁explanation	-3986
ENT	-3987
ams	-3988
ule	-3989
clus	-3990
▁lar	-3991
▁mot	-3992
▁fail	-3993
▁citiz	-3994
▁slept	-3995
▁hollow	-3996
▁priest	-3997
▁farther	-3998
▁keeping	-3999
▁monster	-4000
▁entering	-4001
▁extraord	-4002
▁intended	-4003
01	-4004
▁batt	-4005
▁lamp	-4006
▁birds	-4007
▁reign	-4008
▁twice	-4009
▁arrest	-4010
▁putting	-4011
▁convinced	-4012
▁Thr	-4013
▁rad	-4014
olkón	-4015
▁West	-4016
▁tomb	-4017
▁birth	-4018
▁boats	-4019
▁flies	-4020
▁hopes	-4021
▁stars	-4022
▁favour	-4023
▁tranqu	-4024
▁lighted	-4025
▁monarch	-4026
▁descended	-4027
▁completely	-4028
▁motionless	-4029
RI	-4030
rees	-4031
▁fatal	-4032
▁indif	-4033
▁advice	-4034
▁assemb	-4035
▁calcul	-4036
▁impati	-4037
▁pieces	-4038
▁pulled	-4039
▁suspic	-4040
▁convent	-4041
▁excited	-4042
▁process	-4043
▁concealed	-4044
▁prisoners	-4045
▁8	-4046
OME	-4047
ias	-4048
ivity	-4049
ernand	-4050
▁adjut	-4051
▁brill	-4052
▁cloak	-4053
▁ranks	-4054
▁clever	-4055
▁reality	-4056
▁communic	-4057
▁discover	-4058
▁suffered	-4059
▁determined	-4060
▁considerable	-4061
▁Rob	-4062
▁Prof	-4063
ickham	-4064
▁chari	-4065
▁estab	-4066
▁hence	-4067
▁liked	-4068
▁German	-4069
▁combat	-4070
▁Fantine	-4071
▁counsel	-4072
▁mistake	-4073
▁protect	-4074
▁entrance	-4075
▁mistaken	-4076
----------------	-4077
Al	-4078
▁Pat	-4079
▁tax	-4080
there	-4081
▁rare	-4082
arbuck	-4083
▁aware	-4084
▁minds	-4085
▁rooms	-4086
▁honest	-4087
▁marked	-4088
▁wicked	-4089
▁escaped	-4090
gutenberg	-4091
▁directed	-4092
▁concerning	-4093
Go	-4094
UR	-4095
port	-4096
isher	-4097
ospit	-4098
rehen	-4099
▁task	-4100
▁ideal	-4101
▁advent	-4102
▁hearts	-4103
▁surrounded	-4104
mon	-4105
▁LI	-4106
rors	-4107
▁scr	-4108
ailed	-4109
▁shoes	-4110
▁taste	-4111
▁withd	-4112
▁yours	-4113
▁madame	-4114
▁pushed	-4115
▁Are	-4116
▁sty	-4117
cknow	-4118
▁cous	-4119
▁mast	-4120
fortune	-4121
▁reader	-4122
▁regret	-4123
▁finally	-4124
▁violent	-4125
▁Socrates	-4126
▁directly	-4127
▁explained	-4128
▁wonderful	-4129
▁extraordinary	-4130
azz	-4131
yrac	-4132
▁III	-4133
▁rob	-4134
▁hate	-4135
▁pron	-4136
▁anger	-4137
▁lofty	-4138
▁match	-4139
▁spear	-4140
▁choose	-4141
▁stands	-4142
cription	-4143
▁Collins	-4144
▁Wickham	-4145
▁assured	-4146
▁goddess	-4147
▁highest	-4148
▁regular	-4149
▁progress	-4150
As	-4151
▁Ge	-4152
house	-4153
▁gest	-4154
▁admit	-4155
▁acknow	-4156
▁scream	-4157
▁murmured	-4158
▁absolutely	-4159
dia	-4160
anti	-4161
▁lot	-4162
ounce	-4163
▁Good	-4164
▁ways	-4165
▁feast	-4166
▁interp	-4167
▁prefer	-4168
▁winter	-4169
▁hastily	-4170
▁singing	-4171
▁Professor	-4172
Are	-4173
can	-4174
olt	-4175
rap	-4176
ère	-4177
coat	-4178
▁dull	-4179
▁ease	-4180
▁myst	-4181
▁symp	-4182
utions	-4183
▁delay	-4184
▁staff	-4185
▁points	-4186
▁sounds	-4187
▁General	-4188
▁parents	-4189
▁unfortun	-4190
▁approaching	-4191
AD	-4192
noon	-4193
ture	-4194
▁Lion	-4195
▁sire	-4196
▁miles	-4197
▁stair	-4198
▁flying	-4199
▁interv	-4200
▁Starbuck	-4201
▁departure	-4202
▁accustomed	-4203
▁7	-4204
▁rum	-4205
▁tum	-4206
dered	-4207
▁hole	-4208
▁pair	-4209
▁claim	-4210
▁truly	-4211
▁proved	-4212
▁tongue	-4213
olkónski	-4214
▁England	-4215
▁arrange	-4216
▁splendid	-4217
▁confidence	-4218
eys	-4219
▁invol	-4220
▁Europe	-4221
▁infant	-4222
▁precise	-4223
▁destroyed	-4224
dig	-4225
face	-4226
▁Was	-4227
aches	-4228
▁appo	-4229
▁aunt	-4230
▁diss	-4231
▁gaze	-4232
▁Bonap	-4233
▁venge	-4234
▁attent	-4235
▁famous	-4236
▁hither	-4237
▁Fernand	-4238
▁conceal	-4239
▁emotion	-4240
▁sleeping	-4241
▁authority	-4242
▁everywhere	-4243
fl	-4244
ki	-4245
For	-4246
cio	-4247
oul	-4248
rand	-4249
venge	-4250
▁dish	-4251
iments	-4252
▁groan	-4253
▁today	-4254
▁turns	-4255
▁sovere	-4256
▁square	-4257
▁throat	-4258
▁whence	-4259
▁wedding	-4260
▁arranged	-4261
▁mountain	-4262
▁rendered	-4263
▁neighbour	-4264
▁misfortune	-4265
agg	-4266
het	-4267
leg	-4268
▁IV	-4269
aisy	-4270
estor	-4271
▁pros	-4272
▁whir	-4273
rified	-4274
▁rough	-4275
justice	-4276
▁defect	-4277
▁school	-4278
▁summer	-4279
▁profess	-4280
▁addition	-4281
▁laughter	-4282
▁conscience	-4283
orge	-4284
▁Páv	-4285
▁Tur	-4286
ucket	-4287
which	-4288
▁carp	-4289
▁rear	-4290
▁blame	-4291
▁fever	-4292
▁raise	-4293
▁desper	-4294
▁forces	-4295
▁earnest	-4296
▁Jonathan	-4297
▁regarded	-4298
▁associated	-4299
AP	-4300
agr	-4301
Have	-4302
▁sees	-4303
▁shirt	-4304
▁hospit	-4305
▁picked	-4306
▁rolled	-4307
▁voyage	-4308
▁stepped	-4309
▁accepted	-4310
▁carrying	-4311
chen	-4312
uish	-4313
▁gle	-4314
▁vig	-4315
feyrac	-4316
▁dwell	-4317
▁fully	-4318
▁smell	-4319
▁genius	-4320
▁afternoon	-4321
▁accompanied	-4322
hem	-4323
▁Fe	-4324
▁Ty	-4325
olly	-4326
rase	-4327
gment	-4328
▁chim	-4329
▁ener	-4330
▁fled	-4331
lessly	-4332
urally	-4333
▁avoid	-4334
▁calls	-4335
▁queen	-4336
▁wisdom	-4337
▁Woodman	-4338
▁project	-4339
▁demanded	-4340
▁deserted	-4341
▁infinite	-4342
▁otherwise	-4343
▁acquaintance	-4344
3.	-4345
▁Sw	-4346
▁“_	-4347
arte	-4348
ords	-4349
▁Thy	-4350
▁bul	-4351
▁elb	-4352
▁ess	-4353
stand	-4354
▁Like	-4355
▁vari	-4356
▁worn	-4357
▁elder	-4358
▁shade	-4359
▁tired	-4360
athered	-4361
▁credit	-4362
▁invent	-4363
▁efforts	-4364
▁confused	-4365
▁Courfeyrac	-4366
esh	-4367
reg	-4368
▁Ant	-4369
▁Did	-4370
▁exha	-4371
▁grad	-4372
▁Those	-4373
▁penet	-4374
▁whist	-4375
ational	-4376
▁deeply	-4377
▁request	-4378
▁contempl	-4379
▁entertain	-4380
▁recognize	-4381
▁relations	-4382
Ex	-4383
asc	-4384
att	-4385
aws	-4386
▁Aj	-4387
iece	-4388
line	-4389
road	-4390
eding	-4391
▁Hark	-4392
▁heat	-4393
▁medi	-4394
▁mult	-4395
▁catch	-4396
▁skies	-4397
▁wheel	-4398
lection	-4399
▁amount	-4400
▁pardon	-4401
▁undert	-4402
▁waters	-4403
▁constit	-4404
▁content	-4405
▁possibly	-4406
▁resolved	-4407
▁shouting	-4408
▁sufficient	-4409
▁continually	-4410
At	-4411
ault	-4412
quod	-4413
rehe	-4414
avalc	-4415
▁Each	-4416
▁exch	-4417
▁rate	-4418
▁cover	-4419
▁lance	-4420
▁named	-4421
▁ocean	-4422
▁lovely	-4423
▁refund	-4424
▁fifteen	-4425
▁shining	-4426
▁official	-4427
▁intention	-4428
02	-4429
US	-4430
,--	-4431
._--	-4432
rows	-4433
▁Pol	-4434
▁www	-4435
ators	-4436
▁glit	-4437
▁shed	-4438
▁frown	-4439
▁Pequod	-4440
▁copies	-4441
▁gazing	-4442
▁handed	-4443
▁hidden	-4444
▁social	-4445
▁useful	-4446
▁actions	-4447
▁travell	-4448
▁gathered	-4449
▁peasants	-4450
▁signific	-4451
hus	-4452
raw	-4453
unch	-4454
chant	-4455
▁dign	-4456
▁wand	-4457
▁Daisy	-4458
▁Lydia	-4459
▁spark	-4460
▁upper	-4461
▁wings	-4462
▁Russia	-4463
▁univers	-4464
▁whisper	-4465
ky	-4466
▁je	-4467
thur	-4468
▁clim	-4469
▁pill	-4470
alities	-4471
▁column	-4472
▁freely	-4473
▁Grecian	-4474
▁somewhere	-4475
▁i	-4476
ait	-4477
ène	-4478
▁[_	-4479
rose	-4480
▁ere	-4481
▁iss	-4482
▁rub	-4483
ading	-4484
ndeed	-4485
▁True	-4486
▁nice	-4487
▁weap	-4488
▁facts	-4489
▁horiz	-4490
▁shape	-4491
▁cheeks	-4492
▁strang	-4493
▁victim	-4494
▁equally	-4495
▁leaning	-4496
▁prepare	-4497
▁weather	-4498
avalcanti	-4499
▁treasure	-4500
▁om	-4501
they	-4502
ottle	-4503
▁Have	-4504
▁insp	-4505
▁wond	-4506
▁major	-4507
▁stick	-4508
▁subst	-4509
▁coffin	-4510
▁severe	-4511
▁finding	-4512
▁warrior	-4513
▁generous	-4514
▁ordinary	-4515
▁touching	-4516
▁Bolkónski	-4517
▁dangerous	-4518
▁injustice	-4519
ode	-4520
ris	-4521
fice	-4522
▁Ali	-4523
▁Ber	-4524
▁ben	-4525
▁sway	-4526
▁aloud	-4527
▁dance	-4528
▁guests	-4529
▁resist	-4530
▁retired	-4531
▁millions	-4532
▁Alexander	-4533
▁lightning	-4534
▁returning	-4535
▁Cavalcanti	-4536
Very	-4537
▁bal	-4538
▁lit	-4539
▁bill	-4540
▁oper	-4541
▁tear	-4542
ensive	-4543
ondret	-4544
ulated	-4545
▁First	-4546
▁cabin	-4547
▁cries	-4548
▁straw	-4549
▁Heaven	-4550
▁fortun	-4551
▁numbers	-4552
▁magnific	-4553
▁provided	-4554
▁stronger	-4555
▁astonishment	-4556
▁mal	-4557
ugust	-4558
▁crim	-4559
▁game	-4560
▁lest	-4561
▁wear	-4562
isions	-4563
▁benef	-4564
▁dared	-4565
▁flame	-4566
▁ghost	-4567
▁wants	-4568
▁assure	-4569
▁poison	-4570
▁stairs	-4571
▁Jondret	-4572
▁entreat	-4573
▁immortal	-4574
▁original	-4575
▁sacrifice	-4576
5.	-4577
Be	-4578
herd	-4579
omme	-4580
uing	-4581
▁ren	-4582
ature	-4583
ighed	-4584
▁Coss	-4585
▁date	-4586
▁Again	-4587
▁mourn	-4588
tending	-4589
▁played	-4590
▁secure	-4591
▁thirst	-4592
▁bearing	-4593
▁nations	-4594
ann	-4595
igs	-4596
omy	-4597
orse	-4598
oses	-4599
▁Gla	-4600
▁New	-4601
asted	-4602
orted	-4603
rated	-4604
▁Bert	-4605
▁drop	-4606
▁gray	-4607
▁knife	-4608
▁Arthur	-4609
▁buried	-4610
▁centre	-4611
▁cousin	-4612
▁tumult	-4613
▁wholly	-4614
Monsieur	-4615
▁Cossack	-4616
▁inspect	-4617
▁leading	-4618
▁attached	-4619
▁personal	-4620
▁intellect	-4621
2.	-4622
OMEO	-4623
▁ens	-4624
▁ing	-4625
élène	-4626
▁Once	-4627
roclus	-4628
▁ROMEO	-4629
▁gently	-4630
▁savage	-4631
▁calling	-4632
▁desired	-4633
▁argument	-4634
▁pointing	-4635
).	-4636
hand	-4637
ilty	-4638
then	-4639
▁bor	-4640
▁Ajax	-4641
▁rope	-4642
▁check	-4643
▁pause	-4644
▁prize	-4645
▁sheep	-4646
▁animal	-4647
▁phrase	-4648
▁refuse	-4649
▁transl	-4650
▁Perhaps	-4651
▁kindness	-4652
▁muttered	-4653
▁brilliant	-4654
▁sovereign	-4655
▁importance	-4656
."]	-4657
gan	-4658
iam	-4659
work	-4660
▁Rab	-4661
▁vic	-4662
▁During	-4663
▁aspect	-4664
▁castle	-4665
▁disapp	-4666
▁driven	-4667
▁eating	-4668
▁joined	-4669
▁origin	-4670
▁stones	-4671
▁surely	-4672
▁creatures	-4673
▁interesting	-4674
ett	-4675
eur	-4676
ips	-4677
tis	-4678
aign	-4679
▁tea	-4680
▁wel	-4681
opher	-4682
orous	-4683
uccio	-4684
▁edge	-4685
▁helm	-4686
uments	-4687
▁boots	-4688
▁exceed	-4689
▁native	-4690
▁correct	-4691
▁inhabit	-4692
▁sympath	-4693
▁delighted	-4694
▁increased	-4695
▁destruction	-4696
Wh	-4697
ít	-4698
omed	-4699
▁bos	-4700
▁card	-4701
▁diam	-4702
▁fulf	-4703
▁Robin	-4704
▁lover	-4705
▁style	-4706
▁toler	-4707
▁Hélène	-4708
▁remind	-4709
▁picture	-4710
▁playing	-4711
▁working	-4712
▁adjutant	-4713
▁powerful	-4714
▁Patroclus	-4715
▁concerned	-4716
▁acquainted	-4717
▁distributing	-4718
sey	-4719
▁Oz	-4720
eral	-4721
▁crit	-4722
▁lack	-4723
▁subm	-4724
anches	-4725
keeper	-4726
umbled	-4727
▁flood	-4728
▁weeks	-4729
ogether	-4730
▁gained	-4731
▁kindly	-4732
aughters	-4733
▁Martians	-4734
▁extended	-4735
▁committed	-4736
▁represent	-4737
6.	-4738
ival	-4739
udden	-4740
▁obst	-4741
▁built	-4742
▁Section	-4743
▁Bertuccio	-4744
▁contained	-4745
▁stretched	-4746
▁imagination	-4747
thy	-4748
▁VI	-4749
rily	-4750
▁Bal	-4751
iture	-4752
▁Pont	-4753
▁fame	-4754
▁grey	-4755
▁reck	-4756
▁rust	-4757
▁yard	-4758
▁timid	-4759
▁enthus	-4760
▁needed	-4761
▁prayer	-4762
▁wretch	-4763
▁Rostóvs	-4764
▁enemies	-4765
▁heavens	-4766
▁located	-4767
▁proport	-4768
▁raising	-4769
▁sisters	-4770
▁Republic	-4771
▁Jondrette	-4772
uf	-4773
Don	-4774
apt	-4775
min	-4776
was	-4777
▁Po	-4778
osen	-4779
rict	-4780
▁kit	-4781
▁wid	-4782
▁bree	-4783
▁hurt	-4784
▁swim	-4785
▁Glauc	-4786
▁falls	-4787
▁grate	-4788
▁harpo	-4789
▁kings	-4790
▁purch	-4791
▁swell	-4792
respond	-4793
▁depths	-4794
▁fourth	-4795
▁ignorant	-4796
▁minister	-4797
▁daughters	-4798
4.	-4799
AM	-4800
De	-4801
rov	-4802
zed	-4803
cent	-4804
lope	-4805
▁saf	-4806
....”	-4807
oting	-4808
oused	-4809
illery	-4810
▁arose	-4811
▁bride	-4812
▁fetch	-4813
▁Harker	-4814
▁dreams	-4815
▁jumped	-4816
▁strike	-4817
▁thanks	-4818
▁anxiety	-4819
▁colonel	-4820
▁descend	-4821
▁mounted	-4822
▁becoming	-4823
▁citizens	-4824
▁distress	-4825
▁dressing	-4826
▁confusion	-4827
▁impression	-4828
ium	-4829
ral	-4830
▁ax	-4831
book	-4832
rier	-4833
▁Maj	-4834
▁shr	-4835
gging	-4836
itive	-4837
▁plun	-4838
▁rush	-4839
▁cruel	-4840
▁exerc	-4841
▁waist	-4842
▁Mother	-4843
▁guilty	-4844
▁medium	-4845
▁seeking	-4846
▁employed	-4847
▁relation	-4848
▁remaining	-4849
▁companions	-4850
7.	-4851
._]	-4852
bid	-4853
▁RE	-4854
acity	-4855
acles	-4856
atión	-4857
owder	-4858
▁Bagr	-4859
▁Hill	-4860
▁cler	-4861
▁decl	-4862
▁Water	-4863
▁level	-4864
▁owner	-4865
▁uncle	-4866
▁wrath	-4867
▁Rabbit	-4868
▁candle	-4869
▁kitchen	-4870
▁branches	-4871
▁Bagratión	-4872
▁correspond	-4873
fs	-4874
who	-4875
ourge	-4876
place	-4877
vious	-4878
▁cott	-4879
lished	-4880
▁absor	-4881
▁cases	-4882
▁flesh	-4883
▁merry	-4884
▁moral	-4885
▁paces	-4886
▁skill	-4887
▁observ	-4888
▁render	-4889
eanwhile	-4890
▁Through	-4891
▁surface	-4892
▁accident	-4893
▁campaign	-4894
▁cheerful	-4895
▁whenever	-4896
▁permitted	-4897
▁staircase	-4898
;—	-4899
gu	-4900
Sir	-4901
lev	-4902
mble	-4903
▁Alp	-4904
▁ban	-4905
▁bla	-4906
▁arch	-4907
▁lock	-4908
▁pant	-4909
▁sour	-4910
▁Romeo	-4911
▁caval	-4912
▁coast	-4913
▁erect	-4914
▁ident	-4915
▁serve	-4916
▁sewer	-4917
▁worst	-4918
onsense	-4919
▁Street	-4920
▁applic	-4921
▁bottle	-4922
▁couple	-4923
▁eBooks	-4924
▁proble	-4925
▁sevent	-4926
onscious	-4927
▁eternal	-4928
▁hanging	-4929
▁features	-4930
▁innocent	-4931
▁frightful	-4932
▁Christopher	-4933
key	-4934
▁[2	-4935
▁Next	-4936
▁arts	-4937
▁thor	-4938
▁toss	-4939
▁bosom	-4940
▁frame	-4941
▁plans	-4942
▁sorts	-4943
▁swall	-4944
uddenly	-4945
▁sailor	-4946
▁compass	-4947
▁measure	-4948
▁gradually	-4949
▁mountains	-4950
▁political	-4951
▁vengeance	-4952
new	-4953
upp	-4954
▁Il	-4955
aria	-4956
quis	-4957
▁bid	-4958
▁pin	-4959
oping	-4960
▁busy	-4961
▁excl	-4962
▁heap	-4963
acious	-4964
▁Hence	-4965
▁Shall	-4966
▁bones	-4967
▁gates	-4968
▁afford	-4969
▁steeds	-4970
▁assumed	-4971
▁sailors	-4972
▁Pávlovna	-4973
▁conception	-4974
oli	-4975
▁TH	-4976
▁Yu	-4977
▁Pen	-4978
▁rib	-4979
▁glim	-4980
ashing	-4981
idable	-4982
▁value	-4983
▁George	-4984
▁chosen	-4985
▁fisher	-4986
▁gather	-4987
▁desires	-4988
▁hideous	-4989
▁pursued	-4990
▁Moreover	-4991
▁examined	-4992
▁naturally	-4993
▁revolution	-4994
▁unfortunate	-4995
aul	-4996
▁ta	-4997
unte	-4998
▁ate	-4999
▁log	-5000
▁oil	-5001
▁unp	-5002
▁Eury	-5003
▁beings	-5004
▁convey	-5005
▁wooden	-5006
▁capable	-5007
▁capital	-5008
▁details	-5009
▁eagerly	-5010
▁manners	-5011
▁painful	-5012
▁princip	-5013
▁produce	-5014
▁reasons	-5015
▁composed	-5016
▁mistress	-5017
▁Nevertheless	-5018
▁distinguished	-5019
IG	-5020
▁BE	-5021
▁OR	-5022
whel	-5023
▁cru	-5024
▁lan	-5025
▁sup	-5026
bourg	-5027
▁seas	-5028
▁wake	-5029
▁wept	-5030
▁Julie	-5031
▁indul	-5032
▁mater	-5033
▁batter	-5034
▁animals	-5035
▁convict	-5036
▁procure	-5037
▁shudder	-5038
▁Russians	-5039
▁thorough	-5040
▁protected	-5041
▁distribution	-5042
AS	-5043
AT	-5044
een	-5045
uzz	-5046
aced	-5047
iner	-5048
▁Ind	-5049
▁YOU	-5050
lease	-5051
urity	-5052
▁holy	-5053
▁link	-5054
▁wing	-5055
▁cours	-5056
▁fears	-5057
▁existed	-5058
▁actually	-5059
▁brothers	-5060
▁maintain	-5061
▁Meanwhile	-5062
▁astonished	-5063
dy	-5064
ese	-5065
ette	-5066
geon	-5067
itle	-5068
inder	-5069
isten	-5070
▁Ital	-5071
▁inex	-5072
▁mate	-5073
▁torn	-5074
ouring	-5075
pended	-5076
▁overt	-5077
▁spare	-5078
▁excuse	-5079
▁flames	-5080
kerchief	-5081
▁admitted	-5082
▁belonged	-5083
▁informed	-5084
▁physical	-5085
▁apartment	-5086
▁altogether	-5087
▁intelligence	-5088
▁satisfaction	-5089
Av	-5090
One	-5091
▁Wu	-5092
arks	-5093
ueen	-5094
▁bew	-5095
▁bou	-5096
estic	-5097
▁rank	-5098
▁shru	-5099
▁tale	-5100
▁drunk	-5101
▁infer	-5102
▁ridic	-5103
▁tempt	-5104
▁murder	-5105
▁observe	-5106
▁activity	-5107
▁involunt	-5108
▁trembled	-5109
▁artillery	-5110
▁friendship	-5111
▁reflection	-5112
AG	-5113
Ch	-5114
hip	-5115
tel	-5116
áty	-5117
▁NO	-5118
iest	-5119
ores	-5120
uced	-5121
▁mud	-5122
▁Tell	-5123
▁beha	-5124
▁lear	-5125
pelled	-5126
▁loose	-5127
▁reser	-5128
▁squad	-5129
▁contro	-5130
▁crying	-5131
▁flower	-5132
▁porter	-5133
▁safety	-5134
▁furious	-5135
▁quitted	-5136
ification	-5137
▁sentence	-5138
▁slightly	-5139
▁Sometimes	-5140
▁pleasures	-5141
▁Ro	-5142
ares	-5143
enes	-5144
▁Mag	-5145
▁pan	-5146
▁flat	-5147
▁pave	-5148
▁pipe	-5149
▁sank	-5150
▁skin	-5151
arrass	-5152
▁mercy	-5153
ulation	-5154
▁palace	-5155
▁paying	-5156
▁driving	-5157
▁gesture	-5158
▁contempt	-5159
▁instance	-5160
▁silently	-5161
▁struggle	-5162
▁abandoned	-5163
▁proceeded	-5164
!"	-5165
!_	-5166
ih	-5167
Bec	-5168
With	-5169
rien	-5170
▁qui	-5171
acher	-5172
iance	-5173
ishes	-5174
▁Thou	-5175
▁inev	-5176
ivered	-5177
▁weary	-5178
▁corpse	-5179
▁leaned	-5180
▁poetry	-5181
▁follows	-5182
▁refused	-5183
▁revenge	-5184
▁thither	-5185
▁Suddenly	-5186
▁declared	-5187
▁presents	-5188
▁connected	-5189
Ren	-5190
nal	-5191
pap	-5192
▁Mi	-5193
▁oh	-5194
▁Red	-5195
▁fer	-5196
▁hal	-5197
alous	-5198
igned	-5199
rived	-5200
umber	-5201
▁High	-5202
▁hell	-5203
▁nurse	-5204
▁rever	-5205
Because	-5206
▁thinks	-5207
▁figures	-5208
▁slaught	-5209
▁Countess	-5210
▁connection	-5211
▁principles	-5212
▁handkerchief	-5213
VE	-5214
Pro	-5215
amma	-5216
aunt	-5217
▁wet	-5218
iable	-5219
ology	-5220
▁mort	-5221
Renaud	-5222
▁ended	-5223
▁steel	-5224
ization	-5225
▁Austri	-5226
▁anywhere	-5227
▁comprehe	-5228
▁humanity	-5229
▁reproach	-5230
▁condemned	-5231
▁receiving	-5232
▁resolution	-5233
▁possibility	-5234
.’”	-5235
Mad	-5236
len	-5237
▁ty	-5238
kins	-5239
seen	-5240
zing	-5241
aries	-5242
▁Gard	-5243
▁Phil	-5244
▁lion	-5245
▁poem	-5246
licity	-5247
unning	-5248
▁Sperm	-5249
▁hills	-5250
▁abrupt	-5251
▁bodies	-5252
▁estate	-5253
▁plainly	-5254
▁Frenchman	-5255
▁agreeable	-5256
▁embarrass	-5257
▁assistance	-5258
▁nevertheless	-5259
8.	-5260
By	-5261
gl	-5262
isp	-5263
TION	-5264
ilst	-5265
▁pace	-5266
▁term	-5267
▁flung	-5268
▁illum	-5269
▁sport	-5270
▁assass	-5271
▁attrib	-5272
▁consid	-5273
▁created	-5274
▁rolling	-5275
▁instruct	-5276
▁overwhel	-5277
▁doubtless	-5278
▁exception	-5279
▁execution	-5280
aeus	-5281
umes	-5282
agger	-5283
asket	-5284
ician	-5285
itate	-5286
átych	-5287
▁Pres	-5288
▁musk	-5289
asures	-5290
▁awful	-5291
▁block	-5292
▁hoped	-5293
▁Nestor	-5294
▁active	-5295
▁stared	-5296
▁Another	-5297
▁ashamed	-5298
▁cavalry	-5299
▁chimney	-5300
▁diamond	-5301
▁foreign	-5302
▁vanished	-5303
▁interests	-5304
▁reflected	-5305
▁frequently	-5306
Of	-5307
bus	-5308
▁(_	-5309
ugén	-5310
▁PRO	-5311
▁shel	-5312
inging	-5313
ugénie	-5314
▁Italy	-5315
▁Penel	-5316
▁fleet	-5317
umbling	-5318
▁coward	-5319
▁extent	-5320
▁repeat	-5321
▁wheels	-5322
▁anguish	-5323
▁treated	-5324
▁bringing	-5325
▁coachman	-5326
▁generals	-5327
▁material	-5328
▁precious	-5329
wl	-5330
elt	-5331
eps	-5332
hic	-5333
mít	-5334
rief	-5335
▁Sim	-5336
▁jew	-5337
▁dazz	-5338
▁east	-5339
▁pall	-5340
▁vers	-5341
▁rocks	-5342
▁armies	-5343
▁arrive	-5344
▁betray	-5345
▁disord	-5346
▁redoub	-5347
▁blessed	-5348
▁glancing	-5349
▁addressing	-5350
▁apparently	-5351
fa	-5352
ayd	-5353
▁AN	-5354
ints	-5355
▁dil	-5356
▁lin	-5357
▁pot	-5358
▁woe	-5359
▁Look	-5360
▁sole	-5361
▁badly	-5362
▁cease	-5363
▁solid	-5364
▁firing	-5365
▁setting	-5366
▁weeping	-5367
▁younger	-5368
▁Alpátych	-5369
▁breathing	-5370
▁separated	-5371
▁remarkable	-5372
▁unconscious	-5373
Sh	-5374
hib	-5375
ieve	-5376
kháy	-5377
lebr	-5378
raced	-5379
▁nerv	-5380
▁tent	-5381
▁arise	-5382
▁signs	-5383
▁woods	-5384
▁Mikháy	-5385
▁hunger	-5386
▁manage	-5387
▁happens	-5388
▁willing	-5389
formation	-5390
▁striking	-5391
▁desperate	-5392
▁presently	-5393
loo	-5394
▁Tu	-5395
fall	-5396
well	-5397
▁Sir	-5398
▁bab	-5399
▁reb	-5400
aydée	-5401
▁elev	-5402
▁hamm	-5403
▁final	-5404
▁guide	-5405
▁waste	-5406
utation	-5407
▁belief	-5408
▁depend	-5409
▁strain	-5410
▁thread	-5411
▁uneasy	-5412
▁vision	-5413
▁curtain	-5414
▁lantern	-5415
▁wearing	-5416
▁attitude	-5417
▁breaking	-5418
▁commands	-5419
▁faithful	-5420
▁meantime	-5421
▁midnight	-5422
▁movements	-5423
▁Everything	-5424
▁conditions	-5425
0.	-5426
kin	-5427
▁Di	-5428
▁ec	-5429
arly	-5430
ibly	-5431
lier	-5432
omen	-5433
otte	-5434
▁Sat	-5435
▁nin	-5436
ental	-5437
loved	-5438
▁Mars	-5439
▁mood	-5440
▁shop	-5441
rienne	-5442
▁limbs	-5443
▁south	-5444
▁celebr	-5445
▁choice	-5446
▁colour	-5447
▁excess	-5448
▁Glaucon	-5449
▁Trojans	-5450
▁Bonaparte	-5451
▁exhausted	-5452
▁ignorance	-5453
▁previously	-5454
ads	-5455
rat	-5456
vol	-5457
chan	-5458
▁pil	-5459
alled	-5460
icing	-5461
▁June	-5462
▁deed	-5463
▁farm	-5464
▁meat	-5465
▁test	-5466
▁Marse	-5467
▁drank	-5468
▁flank	-5469
▁wrink	-5470
▁yards	-5471
itement	-5472
▁chiefs	-5473
▁rulers	-5474
▁stayed	-5475
▁Eugénie	-5476
▁Italian	-5477
▁chariot	-5478
▁baroness	-5479
▁building	-5480
▁continue	-5481
▁daylight	-5482
▁division	-5483
▁Mikháylovna	-5484
RAN	-5485
bye	-5486
his	-5487
rous	-5488
▁Pri	-5489
▁dig	-5490
▁ice	-5491
▁irr	-5492
▁shi	-5493
▁vex	-5494
▁Dmít	-5495
▁cord	-5496
▁mart	-5497
▁nodd	-5498
▁offe	-5499
▁prey	-5500
isible	-5501
▁eaten	-5502
▁feels	-5503
▁north	-5504
▁stuff	-5505
looking	-5506
▁purple	-5507
▁tyrant	-5508
▁worked	-5509
▁careful	-5510
▁horizon	-5511
▁managed	-5512
▁objects	-5513
▁formerly	-5514
▁harpoone	-5515
▁perceive	-5516
▁violence	-5517
▁Bourienne	-5518
▁qualities	-5519
▁conclusion	-5520
▁formidable	-5521
▁distinguish	-5522
▁inhabitants	-5523
▁magnificent	-5524
Mé	-5525
Did	-5526
dys	-5527
son	-5528
Look	-5529
icip	-5530
stem	-5531
▁aut	-5532
▁hol	-5533
▁shep	-5534
▁writ	-5535
▁angel	-5536
▁clock	-5537
▁crack	-5538
▁revol	-5539
▁bourge	-5540
▁failed	-5541
▁nation	-5542
▁praise	-5543
▁throne	-5544
▁council	-5545
▁fellows	-5546
▁mystery	-5547
▁usually	-5548
▁affected	-5549
▁upstairs	-5550
▁furniture	-5551
▁traveller	-5552
▁conviction	-5553
▁historians	-5554
3,	-5555
Re	-5556
ns	-5557
ache	-5558
opch	-5559
▁Cat	-5560
▁Des	-5561
▁Rev	-5562
▁Roy	-5563
▁Sep	-5564
▁wra	-5565
cians	-5566
oring	-5567
osure	-5568
▁Hans	-5569
▁keen	-5570
▁mach	-5571
▁text	-5572
▁wave	-5573
▁fires	-5574
▁renew	-5575
▁solic	-5576
▁stiff	-5577
▁swear	-5578
▁uncom	-5579
▁August	-5580
▁exists	-5581
▁footst	-5582
▁nodded	-5583
▁closely	-5584
▁consent	-5585
▁contrad	-5586
▁remarks	-5587
▁comrades	-5588
▁constant	-5589
▁excitement	-5590
▁proportion	-5591
▁]	-5592
ECT	-5593
cast	-5594
gent	-5595
omin	-5596
udes	-5597
▁Abb	-5598
▁VII	-5599
▁ard	-5600
▁gif	-5601
▁liv	-5602
onder	-5603
ulate	-5604
▁Mich	-5605
▁anch	-5606
▁knee	-5607
▁quit	-5608
▁veil	-5609
▁agony	-5610
▁avail	-5611
▁beard	-5612
▁manif	-5613
▁refer	-5614
▁shone	-5615
▁slave	-5616
▁branch	-5617
▁prepar	-5618
▁sooner	-5619
▁wounds	-5620
▁alarmed	-5621
▁dancing	-5622
▁devoted	-5623
▁dragged	-5624
▁forever	-5625
▁related	-5626
▁Rostopch	-5627
▁Waterloo	-5628
▁attacked	-5629
▁included	-5630
▁reaching	-5631
▁announced	-5632
▁consequence	-5633
yn	-5634
off	-5635
íts	-5636
▁Mo	-5637
eric	-5638
▁Vir	-5639
▁spl	-5640
ember	-5641
▁toil	-5642
▁bench	-5643
▁blows	-5644
▁democ	-5645
▁grant	-5646
▁stout	-5647
▁Guards	-5648
▁Seward	-5649
▁begins	-5650
▁causes	-5651
▁fought	-5652
▁utmost	-5653
▁fearful	-5654
▁neglect	-5655
▁nonsense	-5656
▁weakness	-5657
▁guardians	-5658
▁preceding	-5659
▁universal	-5660
▁circumstance	-5661
An	-5662
Un	-5663
Tis	-5664
▁El	-5665
vell	-5666
veni	-5667
Méran	-5668
aping	-5669
cause	-5670
rigny	-5671
▁abst	-5672
▁drag	-5673
▁subl	-5674
▁vale	-5675
liance	-5676
rences	-5677
▁Champ	-5678
▁artic	-5679
▁fruit	-5680
▁poets	-5681
▁trick	-5682
▁winds	-5683
▁absent	-5684
▁magist	-5685
▁comment	-5686
▁visitor	-5687
▁volunte	-5688
Certainly	-5689
▁goodness	-5690
▁heavenly	-5691
▁inclined	-5692
▁numerous	-5693
▁consciousness	-5694
ipp	-5695
zes	-5696
lict	-5697
sars	-5698
▁Men	-5699
▁City	-5700
▁Most	-5701
▁Nant	-5702
▁obsc	-5703
riages	-5704
tember	-5705
urance	-5706
▁Witch	-5707
▁armed	-5708
▁desir	-5709
▁needs	-5710
Avrigny	-5711
▁corrid	-5712
▁finish	-5713
▁helped	-5714
▁hungry	-5715
▁taught	-5716
▁abandon	-5717
▁dignity	-5718
▁galleys	-5719
▁wishing	-5720
▁deceived	-5721
▁subjects	-5722
▁September	-5723
▁appointed	-5724
▁expecting	-5725
▁Rostopchín	-5726
▁collection	-5727
▁description	-5728
,)	-5729
IET	-5730
alf	-5731
amm	-5732
asse	-5733
ollo	-5734
racy	-5735
ulse	-5736
▁JUL	-5737
▁Tin	-5738
▁bas	-5739
▁ric	-5740
▁East	-5741
▁sear	-5742
▁sell	-5743
▁Which	-5744
▁bears	-5745
▁chain	-5746
▁drops	-5747
▁fatig	-5748
▁fired	-5749
▁guest	-5750
▁burned	-5751
▁defend	-5752
▁locked	-5753
▁shouts	-5754
▁hostile	-5755
▁portion	-5756
▁shaking	-5757
▁absorbed	-5758
▁recalled	-5759
▁precisely	-5760
▁Marseilles	-5761
oe	-5762
ox	-5763
sc	-5764
pes	-5765
▁Bl	-5766
▁som	-5767
▁unm	-5768
chair	-5769
▁adop	-5770
▁cool	-5771
▁ours	-5772
▁rese	-5773
▁sofa	-5774
▁whit	-5775
levard	-5776
▁White	-5777
▁awake	-5778
▁sheet	-5779
▁sperm	-5780
▁trace	-5781
▁tramp	-5782
▁JULIET	-5783
▁halted	-5784
▁hatred	-5785
▁insult	-5786
▁intent	-5787
▁larger	-5788
▁posted	-5789
▁throng	-5790
▁destiny	-5791
▁showing	-5792
▁moreover	-5793
▁religion	-5794
▁throwing	-5795
▁bourgeois	-5796
▁immediate	-5797
ses	-5798
▁od	-5799
izzy	-5800
thac	-5801
▁mild	-5802
▁oath	-5803
▁seam	-5804
▁tore	-5805
leness	-5806
▁About	-5807
▁drown	-5808
▁linen	-5809
▁notes	-5810
▁Haydée	-5811
▁Island	-5812
▁consol	-5813
▁mechan	-5814
▁beloved	-5815
▁corrupt	-5816
▁quarters	-5817
▁Nantucket	-5818
▁invisible	-5819
▁pronounced	-5820
▁Má	-5821
▁iv	-5822
poch	-5823
▁HIS	-5824
▁etc	-5825
▁hut	-5826
istic	-5827
pleas	-5828
uries	-5829
▁ends	-5830
▁rang	-5831
▁risk	-5832
atched	-5833
▁clasp	-5834
▁flash	-5835
▁maids	-5836
▁porch	-5837
▁trial	-5838
▁attain	-5839
▁loudly	-5840
▁retire	-5841
▁amongst	-5842
▁foolish	-5843
▁harmony	-5844
▁kingdom	-5845
▁nervous	-5846
▁plunged	-5847
▁steward	-5848
▁utterly	-5849
▁glorious	-5850
▁gratitude	-5851
▁intellectual	-5852
.—	-5853
pro	-5854
urd	-5855
Take	-5856
irty	-5857
ived	-5858
laus	-5859
rive	-5860
▁tal	-5861
▁wag	-5862
agues	-5863
atory	-5864
rious	-5865
▁Sund	-5866
▁size	-5867
▁Baron	-5868
▁Madam	-5869
▁vehic	-5870
itating	-5871
▁banker	-5872
▁softly	-5873
▁disappo	-5874
▁disturb	-5875
▁mission	-5876
▁crossing	-5877
▁concluded	-5878
▁principal	-5879
sp	-5880
sed	-5881
▁Li	-5882
!...	-5883
wood	-5884
▁Mer	-5885
▁Ven	-5886
▁bag	-5887
▁env	-5888
▁fed	-5889
arted	-5890
inate	-5891
▁gown	-5892
▁grim	-5893
▁oars	-5894
▁sous	-5895
▁trif	-5896
hether	-5897
▁Ithac	-5898
▁brief	-5899
▁chase	-5900
▁hunts	-5901
▁stage	-5902
▁stoop	-5903
▁teach	-5904
▁Apollo	-5905
▁battal	-5906
▁duties	-5907
▁incess	-5908
▁indign	-5909
▁powder	-5910
▁Majesty	-5911
▁pierced	-5912
▁rushing	-5913
▁agitated	-5914
▁fastened	-5915
▁infantry	-5916
▁pavement	-5917
▁advancing	-5918
▁performed	-5919
▁suggested	-5920
▁distribute	-5921
▁considering	-5922
▁17	-5923
Will	-5924
llen	-5925
uits	-5926
▁blo	-5927
▁tot	-5928
eries	-5929
eyore	-5930
▁Bour	-5931
▁Soon	-5932
▁VIII	-5933
▁flag	-5934
▁heed	-5935
▁jave	-5936
istrib	-5937
versed	-5938
▁urged	-5939
ounding	-5940
▁Americ	-5941
▁bought	-5942
▁jealous	-5943
▁radiant	-5944
▁replace	-5945
▁unpleas	-5946
▁governor	-5947
▁hastened	-5948
▁visitors	-5949
▁admiration	-5950
pin	-5951
rin	-5952
vet	-5953
five	-5954
rene	-5955
énsk	-5956
inity	-5957
▁cher	-5958
▁hang	-5959
▁proc	-5960
▁agent	-5961
▁angle	-5962
▁fanci	-5963
▁queer	-5964
▁feeble	-5965
▁leader	-5966
▁nobody	-5967
▁signal	-5968
▁system	-5969
▁travel	-5970
▁wouldn	-5971
▁bedroom	-5972
▁conquer	-5973
▁cunning	-5974
▁current	-5975
▁license	-5976
▁obscure	-5977
▁terrified	-5978
▁introduced	-5979
▁distributed	-5980
God	-5981
ael	-5982
uns	-5983
éev	-5984
Alas	-5985
liad	-5986
ágin	-5987
▁Him	-5988
▁tap	-5989
ieved	-5990
▁Many	-5991
▁Till	-5992
▁dise	-5993
▁narr	-5994
▁wasn	-5995
▁epoch	-5996
▁loves	-5997
▁spend	-5998
▁brains	-5999
▁pursue	-6000
▁rested	-6001
▁heavily	-6002
▁hussars	-6003
▁popular	-6004
▁prayers	-6005
▁quality	-6006
▁galloped	-6007
▁sacrific	-6008
EM	-6009
IR	-6010
ai	-6011
—_	-6012
bly	-6013
rya	-6014
emed	-6015
when	-6016
▁rat	-6017
brary	-6018
otted	-6019
▁disd	-6020
▁west	-6021
▁XVIII	-6022
▁awoke	-6023
▁outer	-6024
▁shows	-6025
▁deadly	-6026
▁reward	-6027
▁squire	-6028
▁Colonel	-6029
▁attract	-6030
▁element	-6031
▁fancied	-6032
▁forgive	-6033
▁patient	-6034
▁problem	-6035
▁quarrel	-6036
▁distinctly	-6037
▁sufficiently	-6038
HI	-6039
abe	-6040
har	-6041
inc	-6042
oked	-6043
▁Dan	-6044
▁WAR	-6045
▁bay	-6046
▁isn	-6047
▁non	-6048
blanc	-6049
enter	-6050
othed	-6051
overy	-6052
▁rosy	-6053
▁tied	-6054
eptune	-6055
▁apply	-6056
▁bands	-6057
▁devel	-6058
▁murde	-6059
▁shrie	-6060
▁Eeyore	-6061
▁dining	-6062
▁forbid	-6063
▁respon	-6064
▁million	-6065
▁whaling	-6066
▁delicate	-6067
▁drinking	-6068
▁friendly	-6069
▁inspector	-6070
▁slightest	-6071
▁interested	-6072
▁thoroughly	-6073
▁accomplished	-6074
▁consideration	-6075
▁ST	-6076
▁ep	-6077
ancy	-6078
ques	-6079
vest	-6080
▁Ara	-6081
▁cro	-6082
adise	-6083
▁doct	-6084
▁prud	-6085
▁sang	-6086
▁sust	-6087
▁corps	-6088
▁finds	-6089
▁Balash	-6090
▁loving	-6091
▁poured	-6092
▁stroke	-6093
▁writer	-6094
piration	-6095
▁divided	-6096
▁precaut	-6097
▁pursuit	-6098
▁recomme	-6099
▁staring	-6100
▁suggest	-6101
▁judgment	-6102
▁probable	-6103
▁troubled	-6104
[1	-6105
[2	-6106
ili	-6107
tic	-6108
▁Mu	-6109
lers	-6110
urre	-6111
▁183	-6112
▁Pal	-6113
▁cas	-6114
apsed	-6115
kward	-6116
▁Cont	-6117
▁Prov	-6118
▁flow	-6119
▁ride	-6120
ential	-6121
mother	-6122
▁Faria	-6123
▁ashes	-6124
▁irres	-6125
▁sadly	-6126
▁trous	-6127
▁couldn	-6128
▁prodig	-6129
▁relief	-6130
▁sighed	-6131
lessness	-6132
sibility	-6133
▁Leblanc	-6134
▁anybody	-6135
▁Penelope	-6136
▁disgrace	-6137
▁imagined	-6138
▁murderer	-6139
▁pictures	-6140
▁resolute	-6141
▁sympathy	-6142
▁household	-6143
▁intervals	-6144
AB	-6145
box	-6146
don	-6147
▁Ts	-6148
anth	-6149
odin	-6150
▁Luc	-6151
▁hyp	-6152
▁lat	-6153
▁butt	-6154
▁eleg	-6155
▁mead	-6156
▁unus	-6157
▁Roman	-6158
▁boast	-6159
▁brown	-6160
▁disch	-6161
▁flock	-6162
▁obedi	-6163
▁rules	-6164
▁spout	-6165
▁valet	-6166
Project	-6167
ourable	-6168
▁Ithaca	-6169
▁partly	-6170
▁season	-6171
▁select	-6172
▁source	-6173
▁strict	-6174
▁whilst	-6175
▁Neptune	-6176
▁invited	-6177
▁slipped	-6178
▁stories	-6179
▁contrast	-6180
▁grateful	-6181
▁separate	-6182
▁Christian	-6183
▁profession	-6184
_;	-6185
ded	-6186
gil	-6187
ymn	-6188
▁IX	-6189
etto	-6190
mend	-6191
▁odd	-6192
eless	-6193
ially	-6194
laced	-6195
▁Dick	-6196
▁bows	-6197
▁impr	-6198
▁Márya	-6199
▁Three	-6200
▁Would	-6201
▁borne	-6202
▁cloth	-6203
▁dozen	-6204
▁marsh	-6205
▁pains	-6206
▁purse	-6207
▁seize	-6208
▁vener	-6209
intment	-6210
natural	-6211
▁begged	-6212
▁daring	-6213
▁handle	-6214
▁invest	-6215
▁lights	-6216
▁nights	-6217
▁parted	-6218
▁angrily	-6219
▁awkward	-6220
▁majesty	-6221
▁corridor	-6222
▁preserve	-6223
▁indicated	-6224
rs	-6225
BER	-6226
aon	-6227
▁FOR	-6228
▁buy	-6229
odinó	-6230
▁ages	-6231
▁bade	-6232
▁brig	-6233
▁buck	-6234
▁memb	-6235
▁page	-6236
▁spec	-6237
▁tide	-6238
master	-6239
▁cheek	-6240
▁image	-6241
▁instr	-6242
▁landl	-6243
▁medic	-6244
▁sixty	-6245
▁desert	-6246
▁loaded	-6247
▁consult	-6248
▁convuls	-6249
▁honours	-6250
▁torment	-6251
▁virtues	-6252
▁creation	-6253
▁inferior	-6254
▁acknowled	-6255
tr	-6256
ESS	-6257
ITY	-6258
bar	-6259
hor	-6260
ands	-6261
ovel	-6262
▁CAP	-6263
▁Emp	-6264
▁Tot	-6265
▁lux	-6266
ernal	-6267
ulted	-6268
▁Span	-6269
▁gend	-6270
▁milk	-6271
▁Spart	-6272
▁naked	-6273
▁organ	-6274
▁plate	-6275
▁title	-6276
▁theory	-6277
▁weapon	-6278
▁crowded	-6279
▁knocked	-6280
▁library	-6281
▁natures	-6282
▁disturbed	-6283
▁strangers	-6284
▁thousands	-6285
▁engagement	-6286
▁philosophers	-6287
cto	-6288
rog	-6289
▁ox	-6290
alls	-6291
bits	-6292
leus	-6293
utch	-6294
▁Arg	-6295
▁Cle	-6296
▁Ter	-6297
▁cel	-6298
▁ded	-6299
▁vir	-6300
after	-6301
enger	-6302
▁Abbé	-6303
▁base	-6304
▁flee	-6305
▁pred	-6306
▁vall	-6307
ctober	-6308
▁Flask	-6309
▁Since	-6310
▁based	-6311
▁disci	-6312
▁error	-6313
▁harsh	-6314
▁inner	-6315
▁labor	-6316
▁peril	-6317
▁shake	-6318
▁swept	-6319
▁whirl	-6320
▁courty	-6321
▁dishon	-6322
▁eldest	-6323
▁folded	-6324
▁propri	-6325
▁funeral	-6326
▁Borodinó	-6327
▁practice	-6328
▁proposed	-6329
▁adventure	-6330
▁attracted	-6331
▁slaughter	-6332
▁displaying	-6333
▁glittering	-6334
▁disposition	-6335
▁involuntarily	-6336
hern	-6337
hole	-6338
yard	-6339
▁dun	-6340
emnon	-6341
ulars	-6342
▁Take	-6343
▁anti	-6344
▁caut	-6345
▁chin	-6346
▁jack	-6347
▁soil	-6348
▁sunk	-6349
▁trap	-6350
Father	-6351
isting	-6352
rievna	-6353
▁ahead	-6354
▁honey	-6355
▁mayor	-6356
▁tells	-6357
▁basket	-6358
▁detach	-6359
▁firmly	-6360
▁prompt	-6361
▁shades	-6362
attering	-6363
▁beating	-6364
▁sorrows	-6365
▁recovered	-6366
▁Dmítrievna	-6367
cip	-6368
ped	-6369
itty	-6370
osal	-6371
reek	-6372
▁Alc	-6373
▁Any	-6374
▁Old	-6375
▁fac	-6376
Never	-6377
amped	-6378
anges	-6379
irect	-6380
▁Vamp	-6381
▁aged	-6382
estial	-6383
ilight	-6384
▁Priam	-6385
▁price	-6386
▁tower	-6387
amation	-6388
amemnon	-6389
enelaus	-6390
fulness	-6391
▁breeze	-6392
▁extrem	-6393
▁ruined	-6394
▁smooth	-6395
▁deliber	-6396
▁painted	-6397
▁sincere	-6398
▁animated	-6399
▁compared	-6400
▁editions	-6401
▁overcome	-6402
▁starting	-6403
▁agitation	-6404
▁furnished	-6405
▁preserved	-6406
▁Revolution	-6407
▁observation	-6408
▁requirements	-6409
UM	-6410
arf	-6411
▁Han	-6412
▁Kar	-6413
▁gla	-6414
▁rom	-6415
▁unb	-6416
erted	-6417
▁Cors	-6418
▁chap	-6419
▁encl	-6420
▁halt	-6421
▁nois	-6422
▁prow	-6423
▁puzz	-6424
▁temp	-6425
olénsk	-6426
▁North	-6427
▁deeds	-6428
▁kinds	-6429
▁quant	-6430
▁tight	-6431
▁views	-6432
▁energy	-6433
▁riding	-6434
▁October	-6435
▁nearest	-6436
▁reports	-6437
▁armchair	-6438
▁arrested	-6439
▁conflict	-6440
▁monsieur	-6441
▁obtained	-6442
▁restored	-6443
▁carriages	-6444
▁courtyard	-6445
▁scattered	-6446
.1	-6447
UN	-6448
pet	-6449
sec	-6450
ENCE	-6451
ools	-6452
▁CON	-6453
▁dip	-6454
▁owe	-6455
▁row	-6456
ashes	-6457
inent	-6458
▁fain	-6459
▁vice	-6460
cribed	-6461
escrib	-6462
ferent	-6463
▁Thras	-6464
▁folly	-6465
▁gifts	-6466
▁stead	-6467
raction	-6468
▁Little	-6469
▁accent	-6470
▁disple	-6471
▁highly	-6472
▁senses	-6473
▁Michael	-6474
▁sublime	-6475
▁visited	-6476
▁welcome	-6477
▁whereas	-6478
▁Smolénsk	-6479
▁cloister	-6480
▁intimate	-6481
▁indescrib	-6482
▁Englishman	-6483
occ	-6484
uan	-6485
uke	-6486
▁Er	-6487
more	-6488
▁Cor	-6489
▁hit	-6490
Thank	-6491
atisf	-6492
lotte	-6493
orney	-6494
▁mant	-6495
▁sche	-6496
orable	-6497
verted	-6498
▁Helen	-6499
▁South	-6500
▁amuse	-6501
▁sails	-6502
▁thine	-6503
▁vault	-6504
Nothing	-6505
ulating	-6506
▁illust	-6507
▁lament	-6508
▁resign	-6509
▁sailed	-6510
▁applied	-6511
▁members	-6512
▁obvious	-6513
▁supreme	-6514
▁acquired	-6515
▁prospect	-6516
▁solitary	-6517
▁trousers	-6518
▁completed	-6519
▁throughout	-6520
”—	-6521
Can	-6522
oni	-6523
▁ic	-6524
Just	-6525
ULET	-6526
itor	-6527
text	-6528
▁Duc	-6529
▁Ren	-6530
▁Sch	-6531
▁mas	-6532
▁alas	-6533
▁nurs	-6534
▁unin	-6535
Indeed	-6536
▁carts	-6537
▁recon	-6538
▁scrut	-6539
▁incred	-6540
▁lovers	-6541
▁sombre	-6542
▁CAPULET	-6543
▁counter	-6544
▁sending	-6545
▁smoking	-6546
▁stretch	-6547
▁tremble	-6548
▁coursers	-6549
▁executed	-6550
▁independ	-6551
▁summoned	-6552
▁Agamemnon	-6553
▁amazement	-6554
▁seriously	-6555
▁descending	-6556
▁indifferent	-6557
▁particulars	-6558
▁indifference	-6559
3]	-6560
LA	-6561
eng	-6562
erl	-6563
kov	-6564
och	-6565
phe	-6566
aved	-6567
ford	-6568
iasm	-6569
shop	-6570
urst	-6571
▁180	-6572
▁Bel	-6573
▁vac	-6574
irmed	-6575
stead	-6576
▁Poly	-6577
▁bond	-6578
▁ecst	-6579
▁fest	-6580
▁roar	-6581
00,000	-6582
rained	-6583
rehens	-6584
verend	-6585
▁alike	-6586
▁fifth	-6587
▁intim	-6588
▁phant	-6589
▁steep	-6590
▁vivid	-6591
▁admire	-6592
▁anchor	-6593
▁armour	-6594
▁marble	-6595
▁notary	-6596
▁Neither	-6597
▁chiefly	-6598
▁disdain	-6599
▁emerged	-6600
▁readily	-6601
▁suspect	-6602
▁Menelaus	-6603
▁attended	-6604
▁awaiting	-6605
▁describe	-6606
▁mournful	-6607
▁collected	-6608
▁prevented	-6609
▁providing	-6610
▁strangely	-6611
▁magistrate	-6612
▁reasonable	-6613
▁unpleasant	-6614
▁established	-6615
sing	-6616
▁Pha	-6617
▁Pre	-6618
▁Ste	-6619
▁gig	-6620
ilson	-6621
oress	-6622
ourse	-6623
piece	-6624
▁unre	-6625
▁Ilion	-6626
▁clerk	-6627
▁leads	-6628
▁mixed	-6629
▁ruler	-6630
inction	-6631
▁commit	-6632
▁detail	-6633
▁holder	-6634
▁losing	-6635
▁masses	-6636
▁settle	-6637
▁unlike	-6638
▁Thrasym	-6639
▁Without	-6640
▁bending	-6641
▁dearest	-6642
▁leagues	-6643
▁sounded	-6644
▁abruptly	-6645
▁bestowed	-6646
▁hitherto	-6647
▁reported	-6648
▁shepherd	-6649
▁twilight	-6650
▁consisted	-6651
▁extremely	-6652
▁hurriedly	-6653
▁shuddered	-6654
▁constantly	-6655
▁occasionally	-6656
▁recollection	-6657
5]	-6658
uv	-6659
See	-6660
col	-6661
gic	-6662
lla	-6663
tree	-6664
▁cla	-6665
▁fem	-6666
ilful	-6667
pring	-6668
▁Sher	-6669
▁lift	-6670
▁brand	-6671
▁heaps	-6672
▁sweep	-6673
▁Wilson	-6674
▁abroad	-6675
▁habits	-6676
▁hoarse	-6677
▁plenty	-6678
▁polite	-6679
▁shared	-6680
▁thresh	-6681
fortunes	-6682
▁amiable	-6683
▁breathe	-6684
▁copying	-6685
▁sentine	-6686
▁valiant	-6687
▁wanting	-6688
▁destined	-6689
▁disposed	-6690
▁district	-6691
▁politics	-6692
▁pressing	-6693
▁celestial	-6694
▁disappear	-6695
▁footsteps	-6696
▁violently	-6697
▁tenderness	-6698
ea	-6699
,—“	-6700
aks	-6701
edy	-6702
evi	-6703
inn	-6704
jud	-6705
ties	-6706
▁Bez	-6707
▁wip	-6708
ppino	-6709
▁aven	-6710
▁corn	-6711
▁webs	-6712
dyssey	-6713
uously	-6714
▁Black	-6715
▁brass	-6716
▁Sunday	-6717
▁absurd	-6718
▁altern	-6719
▁endure	-6720
▁series	-6721
▁status	-6722
▁anticip	-6723
▁concent	-6724
▁cottage	-6725
▁crushed	-6726
▁Gardiner	-6727
▁Sherlock	-6728
▁definite	-6729
▁opinions	-6730
▁elsewhere	-6731
▁inquiries	-6732
▁resembled	-6733
▁traversed	-6734
▁Providence	-6735
▁misfortunes	-6736
4]	-6737
6]	-6738
EL	-6739
awn	-6740
gue	-6741
oft	-6742
opy	-6743
osp	-6744
erer	-6745
four	-6746
shot	-6747
your	-6748
▁***	-6749
▁ner	-6750
▁sob	-6751
ATION	-6752
▁Berg	-6753
▁July	-6754
▁bord	-6755
igneur	-6756
ograph	-6757
▁Royal	-6758
▁balls	-6759
▁doesn	-6760
▁polic	-6761
▁wives	-6762
▁labour	-6763
▁perish	-6764
▁complex	-6765
▁cutting	-6766
▁embrace	-6767
▁returns	-6768
▁disorder	-6769
▁realized	-6770
▁encounter	-6771
▁meanwhile	-6772
▁threshold	-6773
▁historical	-6774
bon	-6775
unn	-6776
▁10	-6777
▁ug	-6778
▁fox	-6779
▁jaw	-6780
▁ske	-6781
▁tur	-6782
rides	-6783
viour	-6784
▁dram	-6785
▁jail	-6786
▁perf	-6787
▁rags	-6788
▁rout	-6789
▁wars	-6790
akened	-6791
erlitz	-6792
ington	-6793
strous	-6794
▁dimin	-6795
▁equip	-6796
▁haven	-6797
▁serge	-6798
▁toils	-6799
▁repose	-6800
▁thence	-6801
▁Peppino	-6802
▁audible	-6803
▁contact	-6804
▁harness	-6805
▁javelin	-6806
▁madness	-6807
▁replies	-6808
▁vessels	-6809
▁ascended	-6810
▁captured	-6811
▁confined	-6812
▁insisted	-6813
▁strongly	-6814
▁commanded	-6815
▁discovery	-6816
▁displayed	-6817
▁containing	-6818
▁delightful	-6819
▁punishment	-6820
▁encountered	-6821
▁represented	-6822
7]	-6823
8]	-6824
Per	-6825
rah	-6826
rois	-6827
wind	-6828
▁Bab	-6829
abeuf	-6830
bbing	-6831
ítski	-6832
▁Toto	-6833
▁clos	-6834
▁club	-6835
▁obli	-6836
▁pole	-6837
▁rays	-6838
▁silk	-6839
▁subs	-6840
▁warn	-6841
ifying	-6842
ourage	-6843
▁March	-6844
▁alter	-6845
▁cares	-6846
▁chose	-6847
▁dirty	-6848
▁elbow	-6849
▁greet	-6850
▁inval	-6851
▁liter	-6852
▁theat	-6853
▁Gretel	-6854
▁burden	-6855
▁cellar	-6856
▁fairly	-6857
▁haught	-6858
▁patron	-6859
▁portra	-6860
▁prayed	-6861
▁refuge	-6862
▁steady	-6863
▁leather	-6864
▁lightly	-6865
▁resting	-6866
▁disclaim	-6867
▁evidence	-6868
▁guardian	-6869
▁transport	-6870
▁accordance	-6871
▁increasing	-6872
▁ridiculous	-6873
▁thoughtful	-6874
sip	-6875
▁AG	-6876
iven	-6877
otes	-6878
▁Jac	-6879
▁PAR	-6880
▁aby	-6881
▁wre	-6882
Greek	-6883
mercy	-6884
wenty	-6885
▁ange	-6886
▁cult	-6887
▁fees	-6888
▁pour	-6889
▁boxes	-6890
▁disag	-6891
▁incon	-6892
▁insol	-6893
▁slang	-6894
▁torch	-6895
▁bestow	-6896
▁calmly	-6897
▁coarse	-6898
▁incomp	-6899
▁retain	-6900
▁string	-6901
▁glimpse	-6902
▁inquire	-6903
▁martial	-6904
▁learning	-6905
▁passions	-6906
▁withdraw	-6907
▁Charlotte	-6908
▁Austerlitz	-6909
▁celebrated	-6910
▁compliance	-6911
▁enthusiasm	-6912
▁volunteers	-6913
▁x	-6914
ERC	-6915
yes	-6916
JECT	-6917
URSE	-6918
UTEN	-6919
ldom	-6920
loqu	-6921
some	-6922
▁Oly	-6923
enses	-6924
uming	-6925
▁Full	-6926
▁cave	-6927
▁deny	-6928
▁glow	-6929
▁irre	-6930
▁onto	-6931
▁tend	-6932
alming	-6933
▁NURSE	-6934
▁disgu	-6935
▁flour	-6936
▁steam	-6937
▁assume	-6938
▁attach	-6939
▁driver	-6940
▁eleven	-6941
▁lively	-6942
▁online	-6943
▁reject	-6944
▁united	-6945
▁William	-6946
▁flushed	-6947
▁letting	-6948
▁limited	-6949
▁departed	-6950
▁external	-6951
▁merchant	-6952
▁restrain	-6953
▁sensible	-6954
▁admirable	-6955
▁assembled	-6956
▁tolerably	-6957
▁individuals	-6958
▁instructions	-6959
5,	-6960
ii	-6961
wr	-6962
lac	-6963
▁Cy	-6964
izes	-6965
peak	-6966
▁Hen	-6967
▁fog	-6968
▁unl	-6969
▁wax	-6970
gthen	-6971
inese	-6972
ribly	-6973
▁doom	-6974
▁gore	-6975
▁hers	-6976
▁pile	-6977
▁rail	-6978
▁rubb	-6979
▁ruff	-6980
▁slee	-6981
▁wash	-6982
headed	-6983
manuel	-6984
▁Vampa	-6985
▁cerem	-6986
▁fiery	-6987
▁risen	-6988
▁stret	-6989
arnasse	-6990
ceiving	-6991
▁bewild	-6992
▁survey	-6993
seigneur	-6994
▁defence	-6995
▁parties	-6996
▁pockets	-6997
▁results	-6998
urrection	-6999
▁comparis	-7000
▁embraced	-7001
▁inspired	-7002
▁situated	-7003
rehensible	-7004
▁Pontmercy	-7005
▁contented	-7006
▁president	-7007
▁procureur	-7008
▁hesitation	-7009
▁Information	-7010
▁overwhelmed	-7011
cho	-7012
BERG	-7013
From	-7014
rels	-7015
▁bol	-7016
▁cyl	-7017
▁nav	-7018
ferre	-7019
heard	-7020
uable	-7021
▁Benn	-7022
▁Both	-7023
▁Kung	-7024
▁betr	-7025
▁clam	-7026
▁damp	-7027
▁trib	-7028
▁type	-7029
Listen	-7030
▁Combe	-7031
▁GUTEN	-7032
▁inher	-7033
▁People	-7034
▁collar	-7035
▁darted	-7036
▁dashed	-7037
▁permit	-7038
▁seldom	-7039
▁wolves	-7040
▁Chinese	-7041
▁PROJECT	-7042
▁battery	-7043
▁comrade	-7044
▁feather	-7045
▁machine	-7046
▁recover	-7047
▁variety	-7048
▁whither	-7049
▁wrapped	-7050
▁families	-7051
▁gigantic	-7052
▁landlord	-7053
▁persuade	-7054
▁quantity	-7055
▁tranquil	-7056
▁GUTENBERG	-7057
▁childhood	-7058
▁compelled	-7059
▁substance	-7060
▁suspicion	-7061
▁provisions	-7062
▁reputation	-7063
▁Thrasymachus	-7064
▁civilization	-7065
OS	-7066
RA	-7067
—‘	-7068
HAT	-7069
any	-7070
why	-7071
▁11	-7072
▁ON	-7073
▁SE	-7074
mber	-7075
reci	-7076
▁ANY	-7077
▁vap	-7078
bourn	-7079
eenth	-7080
eling	-7081
▁Sign	-7082
▁bend	-7083
▁chem	-7084
▁cock	-7085
▁diff	-7086
▁doll	-7087
▁runs	-7088
▁ugly	-7089
everal	-7090
itudes	-7091
▁Among	-7092
▁Grant	-7093
▁Montp	-7094
▁Peter	-7095
▁Right	-7096
▁ample	-7097
▁annoy	-7098
▁climb	-7099
▁depos	-7100
ciences	-7101
▁Mabeuf	-7102
▁WARRAN	-7103
▁comput	-7104
▁danced	-7105
▁format	-7106
▁humble	-7107
▁mirror	-7108
▁musket	-7109
▁obeyed	-7110
▁passes	-7111
▁record	-7112
▁signed	-7113
▁speaks	-7114
▁Atrides	-7115
▁unusual	-7116
▁website	-7117
▁breathed	-7118
▁devotion	-7119
▁medicine	-7120
▁revealed	-7121
▁warriors	-7122
▁Godalming	-7123
▁Longbourn	-7124
▁hesitated	-7125
▁monstrous	-7126
▁multitude	-7127
▁Combeferre	-7128
▁comfortable	-7129
▁Montparnasse	-7130
io	-7131
zh	-7132
lom	-7133
▁Iv	-7134
grat	-7135
lain	-7136
▁Bet	-7137
▁War	-7138
▁ine	-7139
▁net	-7140
▁san	-7141
pends	-7142
▁boys	-7143
▁brid	-7144
▁gymn	-7145
▁jest	-7146
▁puff	-7147
▁rapt	-7148
▁whip	-7149
▁woke	-7150
ounted	-7151
▁Baker	-7152
▁craft	-7153
▁ingen	-7154
▁store	-7155
▁stuck	-7156
utenant	-7157
▁hussar	-7158
▁inevit	-7159
▁remove	-7160
▁supply	-7161
ceptible	-7162
standing	-7163
▁cleared	-7164
▁seconds	-7165
▁criminal	-7166
▁gracious	-7167
▁interior	-7168
▁replaced	-7169
▁solitude	-7170
▁squadron	-7171
▁troubles	-7172
▁establish	-7173
▁fortunate	-7174
▁messenger	-7175
▁moonlight	-7176
▁intelligent	-7177
see	-7178
▁Py	-7179
icks	-7180
lest	-7181
▁...	-7182
▁Jun	-7183
▁aug	-7184
▁orn	-7185
▁woo	-7186
icken	-7187
uince	-7188
unter	-7189
▁Bear	-7190
▁baby	-7191
▁este	-7192
▁soot	-7193
▁stol	-7194
ension	-7195
▁Grand	-7196
▁aloft	-7197
▁apple	-7198
▁blank	-7199
▁merit	-7200
▁mouse	-7201
▁suite	-7202
▁bloody	-7203
▁cities	-7204
▁deeper	-7205
▁joyful	-7206
▁notion	-7207
▁reappe	-7208
▁safely	-7209
▁conject	-7210
▁fatigue	-7211
▁harpoon	-7212
▁illness	-7213
▁somehow	-7214
▁species	-7215
▁Cossacks	-7216
▁floating	-7217
▁offering	-7218
▁recently	-7219
▁ventured	-7220
▁boulevard	-7221
▁examining	-7222
▁preparing	-7223
▁sentiment	-7224
▁performing	-7225
▁spectacles	-7226
▁acknowledge	-7227
▁reflections	-7228
▁significance	-7229
ét	-7230
aux	-7231
hum	-7232
ums	-7233
éra	-7234
outs	-7235
quet	-7236
tell	-7237
upon	-7238
▁Jim	-7239
▁fil	-7240
▁ink	-7241
▁spy	-7242
arged	-7243
liest	-7244
pinay	-7245
stone	-7246
▁MERC	-7247
▁Mond	-7248
▁gets	-7249
▁noon	-7250
▁resc	-7251
▁salt	-7252
ground	-7253
ighted	-7254
soever	-7255
uincey	-7256
▁Jonah	-7257
▁Whose	-7258
▁crest	-7259
▁giant	-7260
▁ashore	-7261
▁brazen	-7262
▁brings	-7263
▁mathem	-7264
▁unwill	-7265
▁yonder	-7266
▁intense	-7267
▁lowered	-7268
▁missing	-7269
▁printed	-7270
▁receipt	-7271
▁restore	-7272
▁complain	-7273
▁decision	-7274
▁elements	-7275
▁relative	-7276
▁tranquill	-7277
▁waistcoat	-7278
▁commission	-7279
▁compassion	-7280
▁directions	-7281
▁attentively	-7282
0]	-7283
1]	-7284
2]	-7285
▁-	-7286
isk	-7287
tes	-7288
uet	-7289
▁ga	-7290
▁—_	-7291
aise	-7292
alog	-7293
plex	-7294
vity	-7295
▁hed	-7296
▁pear	-7297
▁stom	-7298
aptist	-7299
▁Arist	-7300
▁Iliad	-7301
▁Lizzy	-7302
▁couch	-7303
▁frost	-7304
▁incap	-7305
▁marks	-7306
▁owing	-7307
▁actual	-7308
▁bodily	-7309
▁crimes	-7310
▁harmon	-7311
▁hiding	-7312
▁member	-7313
▁smiles	-7314
▁specul	-7315
▁tailor	-7316
▁traces	-7317
ulations	-7318
▁Barrois	-7319
▁control	-7320
▁costume	-7321
▁derived	-7322
▁despite	-7323
▁earlier	-7324
▁killing	-7325
▁mothers	-7326
▁refrain	-7327
▁reverie	-7328
▁swiftly	-7329
▁somebody	-7330
▁wherever	-7331
▁essential	-7332
▁fortnight	-7333
▁obscurity	-7334
▁sensation	-7335
oph	-7336
ste	-7337
back	-7338
empt	-7339
mind	-7340
odes	-7341
rons	-7342
uite	-7343
▁Eum	-7344
▁Far	-7345
▁Owl	-7346
▁gri	-7347
▁ray	-7348
break	-7349
ersed	-7350
guard	-7351
▁craw	-7352
▁foes	-7353
▁hind	-7354
▁rent	-7355
▁tact	-7356
ranean	-7357
▁color	-7358
▁disin	-7359
▁ivory	-7360
▁limit	-7361
▁unity	-7362
▁beaten	-7363
▁chairs	-7364
▁diplom	-7365
▁exting	-7366
▁lately	-7367
▁tables	-7368
opyright	-7369
▁Baptist	-7370
▁barrier	-7371
▁belongs	-7372
▁ceiling	-7373
▁changes	-7374
▁degrees	-7375
▁dismiss	-7376
▁grasped	-7377
▁guessed	-7378
▁newspap	-7379
▁panting	-7380
▁perplex	-7381
▁prolong	-7382
▁sinking	-7383
▁Emmanuel	-7384
▁changing	-7385
▁headlong	-7386
▁marrying	-7387
▁reverend	-7388
▁construct	-7389
▁impatient	-7390
▁uncertain	-7391
▁additional	-7392
▁comparison	-7393
▁discussion	-7394
▁exceedingly	-7395
;”	-7396
HT	-7397
Mr	-7398
His	-7399
rim	-7400
rit	-7401
íkh	-7402
Dear	-7403
aces	-7404
anga	-7405
emet	-7406
have	-7407
▁Mur	-7408
▁apt	-7409
▁ton	-7410
▁vel	-7411
▁vul	-7412
atson	-7413
iring	-7414
olded	-7415
íkhon	-7416
▁Alas	-7417
▁bath	-7418
▁blew	-7419
▁gift	-7420
▁ling	-7421
▁peop	-7422
▁trip	-7423
angled	-7424
resses	-7425
▁Olymp	-7426
▁lands	-7427
▁links	-7428
▁reass	-7429
▁resol	-7430
▁track	-7431
▁veins	-7432
hearted	-7433
ressing	-7434
▁charms	-7435
▁insist	-7436
▁interm	-7437
▁lasted	-7438
▁waking	-7439
ositions	-7440
▁Because	-7441
▁Martian	-7442
▁Several	-7443
▁Spanish	-7444
▁congrat	-7445
▁corners	-7446
▁demands	-7447
▁haughty	-7448
▁shelter	-7449
▁stomach	-7450
▁tempest	-7451
▁upright	-7452
▁wealthy	-7453
▁announce	-7454
▁deprived	-7455
▁exercise	-7456
▁incident	-7457
▁likewise	-7458
▁sinister	-7459
▁wondering	-7460
▁sufferings	-7461
▁illuminated	-7462
▁translation	-7463
▁indescribable	-7464
OW	-7465
ILL	-7466
asm	-7467
▁(1	-7468
Tell	-7469
arts	-7470
even	-7471
gest	-7472
pass	-7473
rust	-7474
▁DIS	-7475
▁Gen	-7476
▁ped	-7477
dides	-7478
forth	-7479
oking	-7480
uding	-7481
verty	-7482
▁Bild	-7483
▁Pall	-7484
▁bark	-7485
▁echo	-7486
▁eyeb	-7487
▁load	-7488
▁lone	-7489
▁vest	-7490
ensity	-7491
ponine	-7492
usions	-7493
worthy	-7494
▁Kanga	-7495
▁appet	-7496
▁dried	-7497
▁serfs	-7498
▁Tíkhon	-7499
▁Virgil	-7500
▁Watson	-7501
▁horrid	-7502
▁inward	-7503
▁reckon	-7504
▁relate	-7505
▁awaited	-7506
▁battles	-7507
▁godlike	-7508
▁hunting	-7509
▁improve	-7510
▁masters	-7511
▁poverty	-7512
▁favorite	-7513
▁gardener	-7514
▁increase	-7515
▁intently	-7516
▁sounding	-7517
▁answering	-7518
▁anxiously	-7519
▁assurance	-7520
▁applicable	-7521
▁comprehend	-7522
▁simplicity	-7523
▁travelling	-7524
▁uneasiness	-7525
ID	-7526
ré	-7527
nes	-7528
pul	-7529
xic	-7530
▁15	-7531
▁50	-7532
HICH	-7533
cont	-7534
mith	-7535
oard	-7536
rant	-7537
▁dru	-7538
▁fow	-7539
actor	-7540
ánski	-7541
▁Moby	-7542
▁Poor	-7543
▁dine	-7544
▁joke	-7545
▁lane	-7546
▁meal	-7547
▁mile	-7548
▁olig	-7549
▁Bened	-7550
▁Swift	-7551
▁acted	-7552
▁altar	-7553
▁grows	-7554
▁legal	-7555
▁ninet	-7556
▁ruins	-7557
▁scorn	-7558
▁spies	-7559
▁swarm	-7560
▁Morris	-7561
▁adored	-7562
▁autumn	-7563
▁borrow	-7564
▁catast	-7565
▁resour	-7566
▁candles	-7567
▁contrib	-7568
▁declare	-7569
▁deliver	-7570
▁draught	-7571
▁inquiry	-7572
▁message	-7573
▁partner	-7574
▁privile	-7575
▁pulling	-7576
▁smaller	-7577
▁studied	-7578
▁superst	-7579
▁conquest	-7580
▁contract	-7581
▁interval	-7582
▁irresist	-7583
▁oligarch	-7584
▁properly	-7585
▁transfer	-7586
▁youthful	-7587
▁interview	-7588
▁invitation	-7589
▁examination	-7590
2)	-7591
Ar	-7592
CEN	-7593
ork	-7594
two	-7595
upt	-7596
anim	-7597
lets	-7598
olet	-7599
▁Hsi	-7600
▁cig	-7601
▁dar	-7602
▁yon	-7603
igsen	-7604
urely	-7605
▁Hipp	-7606
▁bind	-7607
▁dang	-7608
▁flut	-7609
▁mode	-7610
▁owed	-7611
▁peep	-7612
▁rasc	-7613
▁sobs	-7614
▁surv	-7615
inking	-7616
▁Mamma	-7617
▁appar	-7618
▁beach	-7619
▁crept	-7620
▁envel	-7621
▁guilt	-7622
▁hears	-7623
▁scale	-7624
▁scept	-7625
▁seats	-7626
▁Indian	-7627
▁cavern	-7628
▁decide	-7629
▁facing	-7630
▁female	-7631
▁guards	-7632
▁ladder	-7633
▁perpet	-7634
▁accused	-7635
▁benevol	-7636
▁discern	-7637
▁disease	-7638
▁emperor	-7639
▁leaders	-7640
▁respond	-7641
▁scrutin	-7642
▁disagree	-7643
▁exchange	-7644
▁sergeant	-7645
▁carpenter	-7646
▁equipment	-7647
▁repeating	-7648
▁authorities	-7649
▁affectionate	-7650
ITH	-7651
pel	-7652
▁Ho	-7653
?...	-7654
maid	-7655
udge	-7656
▁Dol	-7657
▁XVI	-7658
▁eag	-7659
▁lur	-7660
▁nob	-7661
▁rav	-7662
▁hath	-7663
▁heir	-7664
▁lust	-7665
▁pine	-7666
▁scru	-7667
▁slip	-7668
▁spin	-7669
icious	-7670
▁Enter	-7671
▁abyss	-7672
▁array	-7673
▁banks	-7674
▁cards	-7675
▁eloqu	-7676
▁hated	-7677
▁hotel	-7678
▁thief	-7679
Perhaps	-7680
ilities	-7681
▁assert	-7682
▁eighty	-7683
▁motive	-7684
▁stolen	-7685
▁valley	-7686
▁confirm	-7687
▁redoubt	-7688
▁venture	-7689
▁Austrian	-7690
▁assembly	-7691
▁bleeding	-7692
▁graceful	-7693
▁investig	-7694
▁noticing	-7695
▁youngest	-7696
▁Bennigsen	-7697
▁Speránski	-7698
▁behaviour	-7699
▁catastrop	-7700
▁extremity	-7701
▁innocence	-7702
▁supposing	-7703
▁apartments	-7704
▁calculated	-7705
▁generations	-7706
▁neighborhood	-7707
ada	-7708
igi	-7709
ilí	-7710
lix	-7711
▁20	-7712
▁30	-7713
▁EX	-7714
▁LA	-7715
Pooh	-7716
amin	-7717
boat	-7718
shin	-7719
▁Ass	-7720
▁Haw	-7721
▁XIV	-7722
▁nod	-7723
▁unw	-7724
ensed	-7725
lance	-7726
loire	-7727
unken	-7728
▁Boss	-7729
▁beds	-7730
▁bone	-7731
Really	-7732
necess	-7733
otions	-7734
▁Athen	-7735
▁exhib	-7736
▁goods	-7737
▁impet	-7738
▁manly	-7739
▁older	-7740
▁snuff	-7741
chamber	-7742
istered	-7743
▁beasts	-7744
▁chains	-7745
▁market	-7746
▁pillow	-7747
▁summit	-7748
▁tossed	-7749
▁victor	-7750
▁Whether	-7751
▁admired	-7752
▁impulse	-7753
▁marvell	-7754
▁vaguely	-7755
▁Magloire	-7756
▁creating	-7757
▁expenses	-7758
▁manifest	-7759
▁offended	-7760
▁patience	-7761
▁peaceful	-7762
▁community	-7763
▁confident	-7764
▁confirmed	-7765
▁reasoning	-7766
▁reception	-7767
▁religious	-7768
▁suspended	-7769
▁swallowed	-7770
▁Wellington	-7771
▁breathless	-7772
▁distinction	-7773
2,	-7774
ok	-7775
▁z	-7776
Cap	-7777
pus	-7778
áev	-7779
stri	-7780
time	-7781
umps	-7782
▁Ade	-7783
▁Dav	-7784
▁Ily	-7785
▁tig	-7786
alect	-7787
cribe	-7788
ucing	-7789
▁Duke	-7790
▁Give	-7791
▁Levi	-7792
▁bulw	-7793
▁enqu	-7794
▁lawy	-7795
▁rude	-7796
▁surm	-7797
asions	-7798
idents	-7799
▁decor	-7800
▁eleph	-7801
▁frank	-7802
▁tones	-7803
▁walks	-7804
certain	-7805
▁Pallas	-7806
▁beggar	-7807
▁closer	-7808
▁punish	-7809
▁renown	-7810
▁repuls	-7811
▁towers	-7812
aneously	-7813
inations	-7814
▁endless	-7815
▁granted	-7816
▁labours	-7817
▁springs	-7818
▁warning	-7819
▁portrait	-7820
▁screamed	-7821
▁Grantaire	-7822
▁Therefore	-7823
▁accompany	-7824
▁conducted	-7825
▁determine	-7826
▁happening	-7827
▁retreated	-7828
▁suspected	-7829
▁unnatural	-7830
▁harpooneer	-7831
▁probability	-7832
▁contemplation	-7833
eg	-7834
REE	-7835
lls	-7836
mas	-7837
six	-7838
uts	-7839
vre	-7840
▁AS	-7841
ouch	-7842
ánov	-7843
▁Tow	-7844
▁XII	-7845
▁ain	-7846
▁axe	-7847
▁stu	-7848
Uncle	-7849
occup	-7850
▁Book	-7851
▁Hell	-7852
▁Juno	-7853
▁deaf	-7854
▁lawn	-7855
▁mask	-7856
▁stag	-7857
return	-7858
▁Death	-7859
▁cemet	-7860
▁lodge	-7861
▁trade	-7862
▁Bildad	-7863
▁doubts	-7864
▁fitted	-7865
▁planks	-7866
▁scenes	-7867
▁skelet	-7868
▁drunken	-7869
▁elapsed	-7870
▁glances	-7871
▁glasses	-7872
▁grating	-7873
▁pistols	-7874
▁sailing	-7875
▁seizing	-7876
▁thanked	-7877
▁bitterly	-7878
▁memories	-7879
▁mischief	-7880
▁pleasing	-7881
▁available	-7882
▁centuries	-7883
▁defective	-7884
▁exchanged	-7885
▁narrative	-7886
▁obtaining	-7887
▁physician	-7888
▁paragraphs	-7889
▁proceeding	-7890
▁yourselves	-7891
IC	-7892
”;	-7893
asy	-7894
aus	-7895
rue	-7896
hind	-7897
meil	-7898
past	-7899
phew	-7900
usal	-7901
▁Nes	-7902
▁Roo	-7903
▁Tre	-7904
▁fie	-7905
antus	-7906
ordan	-7907
▁WITH	-7908
▁foam	-7909
▁tiny	-7910
▁Adeim	-7911
▁Guard	-7912
▁Hills	-7913
▁daily	-7914
▁dwarf	-7915
▁indef	-7916
▁pitch	-7917
▁pluck	-7918
▁tread	-7919
fermeil	-7920
▁Corsic	-7921
▁Indeed	-7922
▁Nether	-7923
▁elbows	-7924
▁mental	-7925
▁missed	-7926
▁nephew	-7927
▁roused	-7928
▁sunset	-7929
▁swords	-7930
▁capture	-7931
▁chapter	-7932
▁classes	-7933
▁enchant	-7934
▁encoura	-7935
▁flaming	-7936
▁helpless	-7937
▁hurrying	-7938
▁piercing	-7939
▁stopping	-7940
▁swimming	-7941
▁countries	-7942
▁observing	-7943
▁Adeimantus	-7944
▁downstairs	-7945
▁tranquillity	-7946
fo	-7947
uil	-7948
gain	-7949
keys	-7950
oups	-7951
pite	-7952
resa	-7953
árov	-7954
▁182	-7955
▁Arm	-7956
▁Kur	-7957
▁lip	-7958
nders	-7959
▁THIS	-7960
▁gulf	-7961
asting	-7962
liness	-7963
minded	-7964
▁Simon	-7965
▁Under	-7966
▁Venus	-7967
▁abode	-7968
▁accur	-7969
▁brisk	-7970
▁gleam	-7971
▁keeps	-7972
▁sends	-7973
▁tales	-7974
▁Jordan	-7975
▁Prussi	-7976
▁boldly	-7977
▁defeat	-7978
▁income	-7979
▁instit	-7980
▁jailer	-7981
▁lesson	-7982
▁murmur	-7983
▁offers	-7984
▁profit	-7985
▁riches	-7986
▁subtle	-7987
▁vulgar	-7988
▁washed	-7989
ferences	-7990
▁Bossuet	-7991
▁Hawkins	-7992
▁balloon	-7993
▁charged	-7994
▁complic	-7995
▁conveni	-7996
▁discipl	-7997
▁examine	-7998
▁injured	-7999
▁propose	-8000
▁ringing	-8001
▁slender	-8002
▁temples	-8003
▁conceive	-8004
▁contents	-8005
▁counsels	-8006
▁domestic	-8007
▁payments	-8008
▁reminded	-8009
▁treacher	-8010
▁belonging	-8011
▁certainty	-8012
▁incapable	-8013
▁reference	-8014
▁statement	-8015
▁characters	-8016
▁Montfermeil	-8017
▁Netherfield	-8018
▁incessantly	-8019
▁necessarily	-8020
▁difficulties	-8021
3)	-8022
OLI	-8023
bin	-8024
lys	-8025
oir	-8026
ril	-8027
ryph	-8028
▁BEN	-8029
▁Bog	-8030
▁ach	-8031
▁bee	-8032
▁hom	-8033
ipped	-8034
tends	-8035
▁asks	-8036
▁hint	-8037
▁jaws	-8038
▁lake	-8039
▁meas	-8040
▁pool	-8041
Madame	-8042
itious	-8043
▁Other	-8044
▁Peleg	-8045
▁WHICH	-8046
▁belly	-8047
▁brows	-8048
▁decre	-8049
▁fount	-8050
▁goose	-8051
▁heels	-8052
▁infam	-8053
▁lucky	-8054
▁roads	-8055
▁screw	-8056
▁upset	-8057
ossible	-8058
▁Juliet	-8059
▁issued	-8060
▁joyous	-8061
▁landed	-8062
▁mouths	-8063
▁overth	-8064
▁velvet	-8065
▁answers	-8066
▁closing	-8067
▁enjoyed	-8068
▁gravely	-8069
necessary	-8070
▁arriving	-8071
▁awakened	-8072
▁combined	-8073
▁commence	-8074
▁cylinder	-8075
▁dwelling	-8076
▁foremost	-8077
▁hundreds	-8078
▁passages	-8079
▁relieved	-8080
▁sciences	-8081
▁ascertain	-8082
▁democracy	-8083
▁favourite	-8084
▁obedience	-8085
▁practical	-8086
▁unwilling	-8087
▁advantages	-8088
▁marvellous	-8089
▁politeness	-8090
▁constitution	-8091
▁unexpectedly	-8092
Aye	-8093
MIT	-8094
_.”	-8095
aft	-8096
oes	-8097
umm	-8098
ées	-8099
▁16	-8100
bury	-8101
eyed	-8102
reen	-8103
▁Cha	-8104
▁Has	-8105
▁Med	-8106
▁Mel	-8107
▁Wol	-8108
▁jun	-8109
▁pig	-8110
faced	-8111
ierce	-8112
ifies	-8113
▁Four	-8114
▁Holy	-8115
▁Past	-8116
▁XIII	-8117
▁isol	-8118
▁nigh	-8119
▁rein	-8120
ailing	-8121
oubted	-8122
porary	-8123
spring	-8124
vítski	-8125
▁Kitty	-8126
▁Lucas	-8127
▁dense	-8128
▁dilig	-8129
▁funny	-8130
▁locks	-8131
▁paint	-8132
▁rival	-8133
▁slope	-8134
▁Empire	-8135
▁ascend	-8136
▁butter	-8137
▁denied	-8138
▁impert	-8139
▁mutual	-8140
▁prejud	-8141
▁region	-8142
▁rubles	-8143
▁spears	-8144
▁tragic	-8145
▁adopted	-8146
▁chanced	-8147
▁circles	-8148
▁connect	-8149
▁darling	-8150
▁dialect	-8151
▁intoxic	-8152
▁invalid	-8153
▁landing	-8154
▁methods	-8155
▁secrets	-8156
▁selfish	-8157
▁torture	-8158
▁tremend	-8159
▁attained	-8160
▁betrayed	-8161
▁feverish	-8162
▁frowning	-8163
▁interrog	-8164
▁perished	-8165
▁reserved	-8166
▁services	-8167
▁startled	-8168
▁uttering	-8169
▁valuable	-8170
▁complying	-8171
▁attributed	-8172
▁arrangements	-8173
▁communication	-8174
got	-8175
ols	-8176
▁Bo	-8177
Give	-8178
agon	-8179
emon	-8180
nant	-8181
▁Nay	-8182
▁Pip	-8183
▁atm	-8184
▁bon	-8185
▁pup	-8186
aging	-8187
glass	-8188
icism	-8189
urred	-8190
▁Bene	-8191
▁bars	-8192
▁foul	-8193
▁imit	-8194
▁male	-8195
▁woes	-8196
▁Henry	-8197
▁chape	-8198
▁deriv	-8199
▁exter	-8200
▁holds	-8201
▁moder	-8202
▁skull	-8203
natured	-8204
ression	-8205
▁Signor	-8206
▁aboard	-8207
▁appeal	-8208
▁dismay	-8209
▁heroic	-8210
▁ponder	-8211
▁shakes	-8212
▁Eumaeus	-8213
▁aroused	-8214
▁consist	-8215
▁dungeon	-8216
▁enlight	-8217
▁exposed	-8218
▁grieved	-8219
▁harbour	-8220
▁peoples	-8221
▁princes	-8222
▁remorse	-8223
▁sadness	-8224
▁whereon	-8225
▁frequent	-8226
▁majestic	-8227
▁mathemat	-8228
▁propriet	-8229
▁purchase	-8230
▁solemnly	-8231
▁whalemen	-8232
▁withdrew	-8233
▁Nesvítski	-8234
▁delivered	-8235
▁senseless	-8236
▁contradict	-8237
▁limitation	-8238
▁strengthen	-8239
▁threatening	-8240
▁characteristic	-8241
Dr	-8242
su	-8243
va	-8244
ár	-8245
zel	-8246
▁_“	-8247
camp	-8248
gypt	-8249
illa	-8250
ulet	-8251
▁Cla	-8252
▁cub	-8253
▁dus	-8254
▁hoo	-8255
▁oak	-8256
▁rud	-8257
ardly	-8258
ience	-8259
urned	-8260
ushes	-8261
▁Pole	-8262
▁Tsar	-8263
▁crou	-8264
▁liqu	-8265
▁push	-8266
▁stif	-8267
▁user	-8268
arters	-8269
▁Lives	-8270
▁admin	-8271
▁arrow	-8272
▁diary	-8273
▁exped	-8274
▁grain	-8275
▁smart	-8276
▁swung	-8277
▁waved	-8278
henomen	-8279
▁Should	-8280
▁artist	-8281
▁cheese	-8282
▁gallop	-8283
▁geomet	-8284
▁laying	-8285
▁leaped	-8286
▁maiden	-8287
▁mantle	-8288
▁scheme	-8289
▁simult	-8290
▁traged	-8291
▁warmth	-8292
▁Tydides	-8293
▁columns	-8294
▁counted	-8295
▁depends	-8296
▁effects	-8297
▁energet	-8298
▁exagger	-8299
▁expense	-8300
▁forming	-8301
▁happily	-8302
▁placing	-8303
▁sixteen	-8304
▁skilful	-8305
▁upwards	-8306
▁cemetery	-8307
▁critical	-8308
▁emotions	-8309
▁imperial	-8310
▁punished	-8311
▁surround	-8312
▁wondrous	-8313
▁Leviathan	-8314
▁appearing	-8315
▁earnestly	-8316
▁treasures	-8317
▁tremendous	-8318
▁exclamation	-8319
▁unnecessary	-8320
▁acknowledged	-8321
▁consequently	-8322
▁perspiration	-8323
May	-8324
OUR	-8325
ano	-8326
cif	-8327
lor	-8328
▁12	-8329
arth	-8330
olic	-8331
sole	-8332
————	-8333
▁200	-8334
▁Bas	-8335
▁ath	-8336
▁aye	-8337
▁cul	-8338
▁sex	-8339
arian	-8340
dated	-8341
force	-8342
might	-8343
shine	-8344
trees	-8345
▁Bilí	-8346
▁Last	-8347
▁Véra	-8348
▁bisc	-8349
▁bowl	-8350
▁dict	-8351
▁leis	-8352
▁neat	-8353
▁plot	-8354
▁rele	-8355
▁slew	-8356
formed	-8357
▁demon	-8358
▁desol	-8359
▁hosts	-8360
▁plant	-8361
▁Behind	-8362
▁atmosp	-8363
▁cattle	-8364
▁insurg	-8365
▁remote	-8366
▁saving	-8367
▁watery	-8368
▁Beneath	-8369
▁Between	-8370
▁Bilíbin	-8371
▁altered	-8372
▁clasped	-8373
▁climbed	-8374
▁concept	-8375
▁fathers	-8376
▁opposed	-8377
▁partial	-8378
▁hospital	-8379
▁huntsman	-8380
▁interpre	-8381
▁mourning	-8382
▁phenomen	-8383
▁apprehens	-8384
▁betrothed	-8385
▁gathering	-8386
▁royalties	-8387
▁supported	-8388
▁treatment	-8389
▁derivative	-8390
▁protection	-8391
▁insurrection	-8392
▁respectfully	-8393
▁neighbourhood	-8394
!)	-8395
);	-8396
Or	-8397
ba	-8398
ART	-8399
dam	-8400
iot	-8401
top	-8402
▁Lo	-8403
▁Mc	-8404
Phar	-8405
asty	-8406
neas	-8407
rini	-8408
rise	-8409
▁Bus	-8410
▁Its	-8411
▁Mil	-8412
▁flu	-8413
▁gos	-8414
▁rig	-8415
▁tip	-8416
Count	-8417
aeans	-8418
ieves	-8419
sters	-8420
▁Life	-8421
▁Supp	-8422
▁Turn	-8423
▁adjo	-8424
▁bees	-8425
▁boot	-8426
▁bund	-8427
▁clut	-8428
▁idle	-8429
▁rows	-8430
▁yawn	-8431
rewell	-8432
stones	-8433
terest	-8434
▁crush	-8435
▁etern	-8436
▁exert	-8437
▁haunt	-8438
▁livid	-8439
▁mould	-8440
▁oppon	-8441
▁prost	-8442
▁reins	-8443
▁shine	-8444
▁surre	-8445
▁sympt	-8446
Pharaon	-8447
ouncing	-8448
▁amidst	-8449
▁coffee	-8450
▁entity	-8451
▁exempt	-8452
▁helmet	-8453
▁insign	-8454
▁jewell	-8455
▁rarely	-8456
▁shores	-8457
▁vanity	-8458
quarters	-8459
▁avoided	-8460
▁deceive	-8461
▁develop	-8462
▁prosper	-8463
▁realize	-8464
▁rightly	-8465
▁sharply	-8466
▁staying	-8467
▁weapons	-8468
▁conveyed	-8469
▁farewell	-8470
▁Presently	-8471
▁persuaded	-8472
▁spectacle	-8473
▁foundation	-8474
▁intentions	-8475
▁perfection	-8476
▁threatened	-8477
▁Monseigneur	-8478
6,	-8479
Le	-8480
ST	-8481
.1.	-8482
.3,	-8483
.3.	-8484
ACH	-8485
ipe	-8486
iti	-8487
kóv	-8488
▁14	-8489
▁Id	-8490
▁Ku	-8491
AMAG	-8492
OLIO	-8493
acon	-8494
umpt	-8495
▁FRI	-8496
▁Squ	-8497
▁pub	-8498
▁rhy	-8499
ILITY	-8500
MITED	-8501
Which	-8502
ainte	-8503
ialog	-8504
oming	-8505
▁Upon	-8506
▁gild	-8507
▁pink	-8508
▁prim	-8509
▁sage	-8510
ducing	-8511
▁Chang	-8512
▁DAMAG	-8513
▁Luigi	-8514
▁Phaea	-8515
▁banqu	-8516
▁eagle	-8517
▁fence	-8518
▁pilot	-8519
▁stamm	-8520
▁swine	-8521
▁trunk	-8522
▁uncon	-8523
▁chapel	-8524
▁deemed	-8525
▁donate	-8526
▁exquis	-8527
▁lonely	-8528
▁review	-8529
▁rights	-8530
▁saddle	-8531
▁sprung	-8532
▁verses	-8533
▁LIMITED	-8534
▁appreci	-8535
▁artific	-8536
▁benefit	-8537
▁footman	-8538
▁pushing	-8539
▁reduced	-8540
▁thicket	-8541
▁timidly	-8542
▁torrent	-8543
▁vehicle	-8544
mpossible	-8545
▁Achaeans	-8546
▁Pastrini	-8547
▁contains	-8548
▁indirect	-8549
▁sunshine	-8550
▁Something	-8551
▁occasions	-8552
▁redistrib	-8553
▁venerable	-8554
▁bewildered	-8555
▁compliment	-8556
▁successful	-8557
▁consolation	-8558
▁expectation	-8559
▁replacement	-8560
▁disagreeable	-8561
Ant	-8562
IVE	-8563
UTI	-8564
alv	-8565
boy	-8566
▁2.	-8567
▁az	-8568
IGHT	-8569
THER	-8570
hire	-8571
onor	-8572
▁Acc	-8573
▁Out	-8574
▁Say	-8575
▁awe	-8576
▁egg	-8577
alles	-8578
icted	-8579
ulcan	-8580
▁Comp	-8581
▁bulk	-8582
▁dies	-8583
▁tops	-8584
▁upro	-8585
ocious	-8586
teenth	-8587
▁Petit	-8588
▁await	-8589
▁bayon	-8590
▁burnt	-8591
▁drift	-8592
▁milit	-8593
▁salon	-8594
▁silly	-8595
▁towns	-8596
▁bowing	-8597
▁bushes	-8598
▁copied	-8599
▁corpor	-8600
▁images	-8601
▁intend	-8602
▁recent	-8603
▁reluct	-8604
▁scarce	-8605
▁submit	-8606
▁waving	-8607
oubtedly	-8608
▁deserve	-8609
▁elegant	-8610
▁gallant	-8611
▁gallery	-8612
▁howling	-8613
▁slumber	-8614
▁terrors	-8615
▁tonight	-8616
▁Parisian	-8617
▁doubtful	-8618
▁eyebrows	-8619
▁rapidity	-8620
▁retained	-8621
▁wandered	-8622
▁Benedetto	-8623
▁battalion	-8624
▁dissatisf	-8625
▁introduce	-8626
▁travelled	-8627
▁precaution	-8628
▁retreating	-8629
▁suspicious	-8630
7,	-8631
UE	-8632
”,	-8633
did	-8634
omb	-8635
▁13	-8636
▁Gl	-8637
▁Ha	-8638
Only	-8639
inth	-8640
oles	-8641
▁Bru	-8642
▁dew	-8643
▁pir	-8644
Saint	-8645
Shall	-8646
VOLIO	-8647
astle	-8648
atáev	-8649
culty	-8650
ifted	-8651
pulch	-8652
▁Turk	-8653
▁ante	-8654
▁chat	-8655
▁goal	-8656
▁lads	-8657
▁tort	-8658
ctions	-8659
haired	-8660
▁chamb	-8661
▁folds	-8662
▁rises	-8663
▁unite	-8664
▁amazed	-8665
▁amused	-8666
▁groups	-8667
▁herald	-8668
▁jacket	-8669
▁occupy	-8670
▁dreamed	-8671
▁enthusi	-8672
▁faculty	-8673
▁orderly	-8674
▁sepulch	-8675
▁villain	-8676
▁winding	-8677
▁yielded	-8678
▁Alcinous	-8679
▁BENVOLIO	-8680
▁ambition	-8681
▁attempts	-8682
▁attorney	-8683
▁audience	-8684
▁dazzling	-8685
▁dragging	-8686
▁elephant	-8687
▁measures	-8688
▁murdered	-8689
▁supplied	-8690
▁arguments	-8691
▁exquisite	-8692
▁ferocious	-8693
▁offspring	-8694
▁respected	-8695
▁tormented	-8696
▁describing	-8697
▁generation	-8698
▁instrument	-8699
▁entertained	-8700
▁preparation	-8701
VEN	-8702
bow	-8703
ird	-8704
jac	-8705
lat	-8706
urb	-8707
▁Ac	-8708
▁Im	-8709
UTIO	-8710
bacc	-8711
lini	-8712
sect	-8713
▁NOT	-8714
▁hay	-8715
▁sne	-8716
actly	-8717
count	-8718
erald	-8719
erval	-8720
hered	-8721
white	-8722
▁Bald	-8723
▁Love	-8724
▁THAT	-8725
▁bust	-8726
▁debt	-8727
▁nest	-8728
▁outl	-8729
▁oxen	-8730
▁tele	-8731
▁azure	-8732
▁embro	-8733
▁inexp	-8734
▁magic	-8735
▁paced	-8736
▁panic	-8737
▁patri	-8738
▁score	-8739
▁shaft	-8740
▁shoot	-8741
▁theft	-8742
▁veget	-8743
inently	-8744
iveness	-8745
▁Edward	-8746
▁affirm	-8747
▁bullet	-8748
▁career	-8749
▁divide	-8750
▁judges	-8751
▁pallor	-8752
▁slaves	-8753
▁stated	-8754
▁subter	-8755
▁tavern	-8756
▁transf	-8757
▁viewed	-8758
umerable	-8759
▁Capulet	-8760
▁Kurágin	-8761
▁attacks	-8762
▁blushed	-8763
▁dispute	-8764
▁doctors	-8765
▁doorway	-8766
▁edition	-8767
▁extingu	-8768
▁passers	-8769
▁pretext	-8770
▁seeming	-8771
▁shortly	-8772
▁Faubourg	-8773
▁Karatáev	-8774
▁MERCUTIO	-8775
▁converse	-8776
▁fourteen	-8777
▁falsehood	-8778
▁quivering	-8779
▁commanders	-8780
▁discipline	-8781
▁occupation	-8782
▁opposition	-8783
▁surprising	-8784
▁whatsoever	-8785
’;	-8786
ata	-8787
nib	-8788
pen	-8789
rec	-8790
rus	-8791
▁ze	-8792
balt	-8793
bled	-8794
bons	-8795
cuse	-8796
kers	-8797
omte	-8798
pers	-8799
▁(2)	-8800
▁Lat	-8801
▁Str	-8802
▁XXI	-8803
▁tid	-8804
Every	-8805
istoc	-8806
urday	-8807
urrah	-8808
▁Arab	-8809
▁duel	-8810
▁file	-8811
gments	-8812
▁Egypt	-8813
▁Night	-8814
▁Think	-8815
▁analy	-8816
▁anter	-8817
▁blaze	-8818
▁evils	-8819
▁hovel	-8820
▁nails	-8821
▁newly	-8822
▁pages	-8823
▁scent	-8824
▁spoil	-8825
atively	-8826
▁Doctor	-8827
▁Teresa	-8828
▁Vulcan	-8829
▁Wicked	-8830
▁abomin	-8831
▁coldly	-8832
▁cultiv	-8833
▁cursed	-8834
▁inches	-8835
▁raging	-8836
▁seamen	-8837
▁sheets	-8838
▁transp	-8839
▁Aristot	-8840
▁dazzled	-8841
▁grounds	-8842
▁lifting	-8843
▁policem	-8844
▁reverse	-8845
▁whistle	-8846
▁accounts	-8847
▁backward	-8848
▁daybreak	-8849
▁descends	-8850
▁indicate	-8851
▁invented	-8852
▁referred	-8853
▁retorted	-8854
▁uncommon	-8855
▁conceived	-8856
▁searching	-8857
▁spiritual	-8858
▁wandering	-8859
▁benefactor	-8860
▁insignific	-8861
▁passionate	-8862
▁questioned	-8863
▁respectful	-8864
▁struggling	-8865
▁triumphant	-8866
▁application	-8867
▁catastrophe	-8868
▁innumerable	-8869
▁unconsciously	-8870
En	-8871
UC	-8872
aph	-8873
iac	-8874
▁Co	-8875
▁ma	-8876
Some	-8877
cier	-8878
fold	-8879
mast	-8880
orus	-8881
post	-8882
riel	-8883
▁Pel	-8884
▁Pyl	-8885
▁Ros	-8886
▁Tim	-8887
▁bea	-8888
▁coo	-8889
▁dug	-8890
▁enl	-8891
▁jet	-8892
▁lun	-8893
▁oft	-8894
▁tin	-8895
▁ult	-8896
olomy	-8897
▁Does	-8898
▁Five	-8899
▁Vien	-8900
▁beam	-8901
▁fath	-8902
▁fits	-8903
▁impl	-8904
atives	-8905
ements	-8906
ulties	-8907
velope	-8908
▁FRIAR	-8909
▁Green	-8910
▁darts	-8911
▁delir	-8912
▁dined	-8913
▁hedge	-8914
▁mates	-8915
▁moist	-8916
▁scrap	-8917
▁spell	-8918
▁stove	-8919
▁trump	-8920
▁vanqu	-8921
nothing	-8922
olomyès	-8923
oration	-8924
▁Turtle	-8925
▁Tybalt	-8926
▁acting	-8927
▁advers	-8928
▁divers	-8929
▁fulfil	-8930
▁hoping	-8931
▁stable	-8932
▁thrice	-8933
▁tobacc	-8934
▁unseen	-8935
▁Emerald	-8936
▁Olympus	-8937
▁amusing	-8938
▁augment	-8939
▁bullets	-8940
▁chances	-8941
▁flashed	-8942
▁largest	-8943
▁persist	-8944
▁puzzled	-8945
▁sternly	-8946
▁writers	-8947
▁American	-8948
▁assassin	-8949
▁bulwarks	-8950
▁desirous	-8951
▁groaning	-8952
▁paradise	-8953
▁preoccup	-8954
▁sentinel	-8955
▁suitable	-8956
▁Aristotle	-8957
▁objection	-8958
▁preferred	-8959
▁stationed	-8960
▁whiteness	-8961
▁adventures	-8962
▁atmosphere	-8963
▁impatience	-8964
▁maintained	-8965
▁perceiving	-8966
▁respecting	-8967
▁embarrassed	-8968
▁respectable	-8969
▁wretchedness	-8970
15	-8971
TY	-8972
’,	-8973
Car	-8974
ROM	-8975
car	-8976
ems	-8977
jon	-8978
▁Bu	-8979
▁Up	-8980
▁cu	-8981
anny	-8982
ouss	-8983
ping	-8984
▁LAW	-8985
▁Tem	-8986
▁loo	-8987
▁pad	-8988
!...”	-8989
armes	-8990
isive	-8991
izard	-8992
othes	-8993
uated	-8994
▁Cons	-8995
▁brut	-8996
▁clad	-8997
▁conj	-8998
▁fund	-8999
▁hadn	-9000
▁hing	-9001
▁jury	-9002
▁mute	-9003
▁nail	-9004
▁sack	-9005
antime	-9006
ryphon	-9007
▁backs	-9008
▁clung	-9009
▁costs	-9010
▁debts	-9011
▁gamin	-9012
▁goats	-9013
▁issue	-9014
▁petty	-9015
▁rolls	-9016
▁thigh	-9017
▁thumb	-9018
▁weigh	-9019
▁condes	-9020
▁groans	-9021
▁hasten	-9022
▁hearth	-9023
▁indisp	-9024
▁pounds	-9025
▁shower	-9026
▁theirs	-9027
▁trench	-9028
▁Livesey	-9029
▁carries	-9030
▁commiss	-9031
▁essence	-9032
▁furnish	-9033
▁handful	-9034
▁phantom	-9035
▁thieves	-9036
▁twisted	-9037
▁Saturday	-9038
▁educated	-9039
▁lowering	-9040
▁skeleton	-9041
▁wondered	-9042
▁wrinkled	-9043
▁customary	-9044
▁faculties	-9045
▁gymnastic	-9046
▁imitation	-9047
▁instances	-9048
▁neglected	-9049
▁philosoph	-9050
▁sparkling	-9051
▁forgetting	-9052
▁procession	-9053
▁resistance	-9054
▁grandmother	-9055
▁illustrious	-9056
▁acquaintances	-9057
▁establishment	-9058
.”—	-9059
OSE	-9060
bes	-9061
cap	-9062
noe	-9063
pef	-9064
xem	-9065
▁SA	-9066
▁Tw	-9067
▁eh	-9068
only	-9069
rawn	-9070
such	-9071
thus	-9072
▁Lou	-9073
▁dyn	-9074
▁fug	-9075
▁gas	-9076
abled	-9077
inged	-9078
spect	-9079
▁Cape	-9080
▁Lake	-9081
▁Mock	-9082
▁Tash	-9083
▁duck	-9084
▁gale	-9085
▁impe	-9086
▁matt	-9087
▁symb	-9088
castle	-9089
herent	-9090
▁Luxem	-9091
▁abund	-9092
▁exper	-9093
▁faire	-9094
▁holes	-9095
▁maxim	-9096
▁miser	-9097
▁novel	-9098
▁ornam	-9099
▁physi	-9100
▁poems	-9101
▁revel	-9102
▁roofs	-9103
▁thund	-9104
idently	-9105
▁angels	-9106
▁bathed	-9107
▁bounds	-9108
▁bucket	-9109
▁carpet	-9110
▁growth	-9111
▁immort	-9112
▁induce	-9113
▁indust	-9114
▁invari	-9115
▁meadow	-9116
▁oppose	-9117
▁plains	-9118
▁proofs	-9119
▁resent	-9120
▁serene	-9121
▁termed	-9122
▁Clerval	-9123
▁Spartan	-9124
▁endured	-9125
▁fearing	-9126
▁glowing	-9127
▁gravity	-9128
▁planted	-9129
▁praying	-9130
▁regards	-9131
▁satisfy	-9132
▁stirred	-9133
▁tobacco	-9134
▁joyfully	-9135
▁converted	-9136
▁enjoyment	-9137
▁personage	-9138
▁stammered	-9139
▁Luxembourg	-9140
▁penetrated	-9141
▁complicated	-9142
▁introduction	-9143
vo	-9144
gen	-9145
iem	-9146
isl	-9147
ser	-9148
▁Ga	-9149
dled	-9150
gram	-9151
riar	-9152
▁Jes	-9153
▁XXX	-9154
▁kne	-9155
▁shy	-9156
▁tub	-9157
allel	-9158
heads	-9159
lored	-9160
ppers	-9161
▁Germ	-9162
▁belt	-9163
▁cure	-9164
▁dame	-9165
▁ejac	-9166
▁fasc	-9167
▁fist	-9168
▁knot	-9169
▁sket	-9170
▁spar	-9171
▁subd	-9172
affold	-9173
alling	-9174
dering	-9175
vation	-9176
▁Murat	-9177
▁Nurse	-9178
▁Place	-9179
▁accus	-9180
▁colle	-9181
▁coron	-9182
▁groom	-9183
▁hasty	-9184
▁sable	-9185
▁skirt	-9186
▁songs	-9187
▁vexed	-9188
▁Busoni	-9189
▁Except	-9190
▁Ivánov	-9191
▁advise	-9192
▁arrows	-9193
▁awaken	-9194
▁compar	-9195
▁domain	-9196
▁flowed	-9197
▁ghosts	-9198
▁gloves	-9199
▁hammer	-9200
▁longed	-9201
▁multip	-9202
▁paraly	-9203
▁scound	-9204
▁stupef	-9205
▁volume	-9206
▁weaker	-9207
▁aristoc	-9208
▁dangers	-9209
▁discont	-9210
▁dislike	-9211
▁doubted	-9212
▁drowned	-9213
▁guarded	-9214
▁horrors	-9215
▁lessons	-9216
▁marched	-9217
▁mortals	-9218
▁prophet	-9219
▁thereby	-9220
▁victims	-9221
▁Everyone	-9222
▁Meantime	-9223
▁delicacy	-9224
▁garments	-9225
▁proposal	-9226
▁scaffold	-9227
▁sunlight	-9228
▁animation	-9229
▁attendant	-9230
▁encourage	-9231
▁readiness	-9232
▁regarding	-9233
▁spreading	-9234
▁expressing	-9235
▁lieutenant	-9236
▁sentiments	-9237
withstanding	-9238
▁impatiently	-9239
▁superiority	-9240
▁disappointment	-9241
Pr	-9242
PAN	-9243
fit	-9244
rol	-9245
▁3.	-9246
▁Ev	-9247
▁cy	-9248
Jean	-9249
apse	-9250
cien	-9251
gian	-9252
iday	-9253
open	-9254
oubt	-9255
▁Asi	-9256
▁Sec	-9257
▁Thé	-9258
▁Yan	-9259
▁lee	-9260
▁map	-9261
aning	-9262
innie	-9263
mates	-9264
three	-9265
▁Mery	-9266
▁None	-9267
▁Pray	-9268
▁cash	-9269
▁dece	-9270
▁ench	-9271
▁genu	-9272
▁hook	-9273
▁lieu	-9274
▁owns	-9275
▁tack	-9276
digger	-9277
rating	-9278
upiter	-9279
▁Maire	-9280
▁blade	-9281
▁chill	-9282
▁draws	-9283
▁fiend	-9284
▁ineff	-9285
▁louis	-9286
▁madam	-9287
▁range	-9288
▁union	-9289
▁Brujon	-9290
▁Church	-9291
▁Fierce	-9292
▁Thetis	-9293
▁Vienna	-9294
▁adding	-9295
▁coloss	-9296
▁nerves	-9297
▁provin	-9298
▁rubbed	-9299
▁sleepy	-9300
▁tasted	-9301
▁welcom	-9302
▁Charles	-9303
▁Meryton	-9304
▁bravest	-9305
▁nowhere	-9306
▁refusal	-9307
▁reigned	-9308
▁rewards	-9309
▁Although	-9310
▁catching	-9311
▁diamonds	-9312
▁dropping	-9313
▁replying	-9314
▁vicinity	-9315
▁Frenchmen	-9316
▁attempted	-9317
▁enveloped	-9318
▁interpret	-9319
▁resembles	-9320
▁swineherd	-9321
▁whistling	-9322
▁temperance	-9323
▁significant	-9324
▁dispositions	-9325
LI	-9326
kó	-9327
ád	-9328
ARK	-9329
eus	-9330
mir	-9331
nut	-9332
oom	-9333
bear	-9334
cles	-9335
ient	-9336
ieth	-9337
olio	-9338
uary	-9339
zard	-9340
▁Use	-9341
▁Vol	-9342
▁lid	-9343
▁ram	-9344
▁tut	-9345
▁voc	-9346
RENCE	-9347
These	-9348
cifix	-9349
woman	-9350
▁Vict	-9351
▁bagg	-9352
▁desk	-9353
▁econ	-9354
▁feed	-9355
▁gasp	-9356
▁hare	-9357
▁lung	-9358
velled	-9359
▁Dutch	-9360
▁Frank	-9361
▁bells	-9362
▁defin	-9363
▁dusty	-9364
▁entry	-9365
▁globe	-9366
▁irreg	-9367
▁moves	-9368
▁rhyth	-9369
▁sweat	-9370
▁tiger	-9371
▁token	-9372
▁Winnie	-9373
▁commer	-9374
▁hounds	-9375
▁legisl	-9376
▁morrow	-9377
▁precip	-9378
▁reveal	-9379
▁sphere	-9380
▁visits	-9381
▁baggage	-9382
▁blowing	-9383
▁flatter	-9384
▁floated	-9385
▁forests	-9386
▁frowned	-9387
▁healthy	-9388
▁pretend	-9389
▁serving	-9390
▁warlike	-9391
▁Bonapart	-9392
▁LAWRENCE	-9393
▁approved	-9394
▁consists	-9395
▁covering	-9396
▁cupboard	-9397
▁marching	-9398
▁prioress	-9399
▁released	-9400
▁respects	-9401
▁shrugged	-9402
▁shutters	-9403
▁smallest	-9404
▁steadily	-9405
▁universe	-9406
▁Baptistin	-9407
▁Tholomyès	-9408
▁assistant	-9409
▁believing	-9410
▁gendarmes	-9411
▁prevailed	-9412
▁stockings	-9413
▁tradition	-9414
▁uncomfort	-9415
▁witnesses	-9416
▁Phaeacians	-9417
▁expressive	-9418
▁inevitable	-9419
▁transferred	-9420
11	-9421
TE	-9422
axe	-9423
ero	-9424
haw	-9425
mor	-9426
whe	-9427
▁ti	-9428
Pray	-9429
alus	-9430
ante	-9431
bery	-9432
bors	-9433
clay	-9434
ilet	-9435
rown	-9436
ruck	-9437
tego	-9438
wart	-9439
▁Add	-9440
▁cli	-9441
▁fol	-9442
acing	-9443
athed	-9444
icpus	-9445
lemen	-9446
ratic	-9447
sibly	-9448
ursed	-9449
▁Aunt	-9450
▁Dron	-9451
▁Hold	-9452
▁agon	-9453
▁cuir	-9454
▁grin	-9455
▁mock	-9456
▁ratt	-9457
▁serp	-9458
▁void	-9459
▁wink	-9460
athieu	-9461
▁Catal	-9462
▁Could	-9463
▁Flint	-9464
▁abhor	-9465
▁appla	-9466
▁coinc	-9467
▁dares	-9468
▁likes	-9469
▁metap	-9470
▁sixth	-9471
▁slack	-9472
▁stake	-9473
▁verge	-9474
▁widow	-9475
▁wiped	-9476
atching	-9477
itively	-9478
▁Champs	-9479
▁Hatter	-9480
▁Pember	-9481
▁Philip	-9482
▁gladly	-9483
▁lawyer	-9484
▁livres	-9485
▁midday	-9486
▁nostri	-9487
▁repent	-9488
▁talent	-9489
▁vainly	-9490
▁Gryphon	-9491
▁Jupiter	-9492
▁bandits	-9493
▁cracked	-9494
▁inspire	-9495
▁marshal	-9496
▁prudent	-9497
▁renewed	-9498
▁seventh	-9499
▁solicit	-9500
▁stamped	-9501
▁thirsty	-9502
▁trained	-9503
▁Whatever	-9504
▁afforded	-9505
▁careless	-9506
▁drooping	-9507
▁envelope	-9508
▁grandeur	-9509
▁monument	-9510
▁preceded	-9511
▁pressure	-9512
▁relating	-9513
▁speedily	-9514
▁training	-9515
▁Pemberley	-9516
▁adjoining	-9517
▁extending	-9518
▁horseback	-9519
▁operation	-9520
▁possesses	-9521
▁purchased	-9522
▁regiments	-9523
▁responded	-9524
▁struggled	-9525
▁willingly	-9526
▁detachment	-9527
▁sensations	-9528
▁tumultuous	-9529
▁whispering	-9530
▁accordingly	-9531
▁extinguished	-9532
▁irresistible	-9533
gi	-9534
ARD	-9535
OND	-9536
bru	-9537
has	-9538
low	-9539
pri	-9540
rep	-9541
▁DI	-9542
▁Je	-9543
Wait	-9544
hile	-9545
wing	-9546
▁ecc	-9547
▁nap	-9548
▁rab	-9549
▁rug	-9550
icide	-9551
lying	-9552
ograp	-9553
▁Bill	-9554
▁bald	-9555
▁bids	-9556
▁buzz	-9557
▁fant	-9558
▁intr	-9559
▁leap	-9560
▁melt	-9561
▁puts	-9562
▁reco	-9563
▁sets	-9564
▁swam	-9565
▁vile	-9566
mighty	-9567
ridges	-9568
twenty	-9569
▁Horse	-9570
▁Smoll	-9571
▁Spain	-9572
▁Trans	-9573
▁adorn	-9574
▁fairy	-9575
▁inacc	-9576
▁incom	-9577
▁pious	-9578
▁rigid	-9579
▁simpl	-9580
▁stole	-9581
▁verse	-9582
▁Basque	-9583
▁errors	-9584
▁humili	-9585
▁infall	-9586
▁pacing	-9587
▁strife	-9588
▁uproar	-9589
▁warned	-9590
▁blazing	-9591
▁islands	-9592
▁lacking	-9593
▁mixture	-9594
▁studies	-9595
▁subsequ	-9596
▁weighed	-9597
▁whoever	-9598
▁Minister	-9599
▁Tashtego	-9600
▁abstract	-9601
▁allusion	-9602
▁appetite	-9603
▁calmness	-9604
▁ceremony	-9605
▁civility	-9606
▁disaster	-9607
▁dreaming	-9608
▁elevated	-9609
▁measured	-9610
▁polished	-9611
▁research	-9612
▁restrict	-9613
▁selected	-9614
▁terribly	-9615
▁vigorous	-9616
▁continual	-9617
▁divisions	-9618
▁forbidden	-9619
▁honorable	-9620
▁inhabited	-9621
▁irregular	-9622
▁pretended	-9623
▁recommend	-9624
▁sorrowful	-9625
▁carelessly	-9626
▁displeased	-9627
▁indicating	-9628
▁personally	-9629
▁Thénardiers	-9630
▁harpooneers	-9631
▁hospitality	-9632
▁embarrassment	-9633
▁simultaneously	-9634
ADY	-9635
IOL	-9636
Was	-9637
elf	-9638
ere	-9639
iel	-9640
loc	-9641
uer	-9642
▁IS	-9643
ders	-9644
gone	-9645
hess	-9646
opes	-9647
uity	-9648
▁Chi	-9649
▁IND	-9650
▁cud	-9651
▁doc	-9652
▁jer	-9653
▁les	-9654
▁lic	-9655
▁rou	-9656
▁vow	-9657
After	-9658
Would	-9659
inger	-9660
rates	-9661
▁Amph	-9662
▁Gold	-9663
▁Port	-9664
▁Toul	-9665
▁barb	-9666
▁goat	-9667
▁usur	-9668
estern	-9669
iation	-9670
lysées	-9671
éevich	-9672
▁April	-9673
▁House	-9674
▁Laert	-9675
▁exile	-9676
▁knoll	-9677
▁punct	-9678
▁tenth	-9679
legraph	-9680
▁center	-9681
▁create	-9682
▁faster	-9683
▁hunted	-9684
▁judged	-9685
▁knight	-9686
▁louder	-9687
▁overfl	-9688
▁patter	-9689
▁prohib	-9690
▁quiver	-9691
▁ribbon	-9692
▁roared	-9693
▁snatch	-9694
▁statue	-9695
▁stores	-9696
▁Justine	-9697
▁approve	-9698
▁balance	-9699
▁condemn	-9700
▁cuirass	-9701
▁descent	-9702
▁ecstasy	-9703
▁fancies	-9704
▁motives	-9705
▁remembr	-9706
▁shields	-9707
▁spectre	-9708
▁washing	-9709
▁Highness	-9710
▁anteroom	-9711
▁articles	-9712
▁blessing	-9713
▁bursting	-9714
▁childish	-9715
▁curtains	-9716
▁security	-9717
▁stirring	-9718
▁vehicles	-9719
▁wrinkles	-9720
▁clearness	-9721
▁discussed	-9722
▁enchanted	-9723
▁hereafter	-9724
▁intending	-9725
▁provision	-9726
▁apparition	-9727
▁battalions	-9728
▁insurgents	-9729
▁objections	-9730
▁resembling	-9731
▁neighboring	-9732
▁resemblance	-9733
▁communicated	-9734
Ne	-9735
Po	-9736
gon	-9737
had	-9738
met	-9739
mid	-9740
▁Af	-9741
▁Ma	-9742
▁ah	-9743
IOLA	-9744
▁501	-9745
▁Leg	-9746
▁Rem	-9747
▁Sav	-9748
▁exh	-9749
achel	-9750
ansas	-9751
armed	-9752
bably	-9753
erved	-9754
ilion	-9755
itect	-9756
rical	-9757
rière	-9758
utter	-9759
venue	-9760
▁Pass	-9761
▁Serv	-9762
▁Whit	-9763
▁bolt	-9764
▁borz	-9765
▁claw	-9766
▁hail	-9767
▁mans	-9768
▁nuns	-9769
▁prel	-9770
▁raft	-9771
▁ramp	-9772
▁sore	-9773
▁suck	-9774
bruary	-9775
uesday	-9776
urable	-9777
uteous	-9778
▁brush	-9779
▁discl	-9780
▁gover	-9781
▁gross	-9782
▁liken	-9783
▁metal	-9784
▁print	-9785
▁rings	-9786
▁unequ	-9787
PANIOLA	-9788
renched	-9789
▁Lucien	-9790
▁Peleus	-9791
▁Woking	-9792
▁Yanina	-9793
▁bandit	-9794
▁brandy	-9795
▁cudgel	-9796
▁drawer	-9797
▁enters	-9798
▁esteem	-9799
▁expend	-9800
▁guided	-9801
▁hearty	-9802
▁hinges	-9803
▁indist	-9804
▁learnt	-9805
▁needle	-9806
▁perman	-9807
▁revolt	-9808
▁rivers	-9809
▁robbed	-9810
▁temple	-9811
oussaint	-9812
▁Barclay	-9813
▁dresses	-9814
▁frantic	-9815
▁imposed	-9816
▁oppress	-9817
▁secured	-9818
▁sharing	-9819
▁survive	-9820
▁theatre	-9821
▁alarming	-9822
▁capacity	-9823
▁effected	-9824
▁frontier	-9825
▁nostrils	-9826
▁proceeds	-9827
▁rattling	-9828
▁searched	-9829
▁softened	-9830
▁unworthy	-9831
▁villages	-9832
▁viscount	-9833
▁attentive	-9834
▁complaint	-9835
▁penetrate	-9836
▁residence	-9837
▁whirlwind	-9838
▁witnessed	-9839
▁HISPANIOLA	-9840
▁confession	-9841
▁discharged	-9842
▁prodigious	-9843
▁references	-9844
▁constructed	-9845
▁mechanically	-9846
.7	-9847
Tu	-9848
ya	-9849
end	-9850
lax	-9851
lov	-9852
▁Hy	-9853
▁Pi	-9854
True	-9855
apes	-9856
cend	-9857
lass	-9858
sell	-9859
shka	-9860
skin	-9861
▁202	-9862
▁Cal	-9863
▁Fin	-9864
▁Ori	-9865
▁Rom	-9866
▁viv	-9867
adays	-9868
anter	-9869
conte	-9870
dling	-9871
olyte	-9872
plete	-9873
these	-9874
▁Plum	-9875
▁acts	-9876
▁bite	-9877
▁bron	-9878
▁bury	-9879
▁canv	-9880
▁desc	-9881
▁keel	-9882
▁limb	-9883
▁mane	-9884
▁orph	-9885
▁seal	-9886
aneous	-9887
encies	-9888
retion	-9889
uteuil	-9890
▁Pylos	-9891
▁alley	-9892
▁brist	-9893
▁chall	-9894
▁dimly	-9895
▁irony	-9896
▁plump	-9897
viously	-9898
▁Kansas	-9899
▁Merion	-9900
▁ambush	-9901
▁bishop	-9902
▁crowns	-9903
▁discon	-9904
▁escort	-9905
▁expand	-9906
▁impass	-9907
▁intrig	-9908
▁lesser	-9909
▁sleigh	-9910
▁	-9911
e	-9912
t	-9913
a	-9914
o	-9915
n	-9916
h	-9917
i	-9918
s	-9919
r	-9920
d	-9921
l	-9922
u	-9923
m	-9924
c	-9925
w	-9926
f	-9927
g	-9928
,	-9929
y	-9930
p	-9931
b	-9932
.	-9933
v	-9934
k	-9935
I	-9936
T	-9937
“	-9938
”	-9939
A	-9940
’	-9941
;	-9942
H	-9943
-	-9944
M	-9945
S	-9946
x	-9947
P	-9948
W	-9949
?	-9950
C	-9951
B	-9952
E	-9953
!	-9954
j	-9955
N	-9956
O	-9957
q	-9958
R	-9959
—	-9960
D	-9961
G	-9962
F	-9963
L	-9964
:	-9965
z	-9966
Y	-9967
_	-9968
V	-9969
J	-9970
‘	-9971
1	-9972
U	-9973
é	-9974
"	-9975
0	-9976
á	-9977
(	-9978
)	-9979
K	-9980
ó	-9981
2	-9982
[	-9983
]	-9984
í	-9985
3	-9986
8	-9987
X	-9988
è	-9989
5	-9990
*	-9991
4	-9992
™	-9993
6	-9994
7	-9995
